node {
  name: "dense_9_input"
  op: "Placeholder"
  attr {
    key: "dtype"
    value {
      type: DT_FLOAT
    }
  }
  attr {
    key: "shape"
    value {
      shape {
        dim {
          size: -1
        }
        dim {
          size: 2
        }
      }
    }
  }
}
node {
  name: "dense_9/kernel"
  op: "Const"
  attr {
    key: "dtype"
    value {
      type: DT_FLOAT
    }
  }
  attr {
    key: "value"
    value {
      tensor {
        dtype: DT_FLOAT
        tensor_shape {
          dim {
            size: 2
          }
          dim {
            size: 64
          }
        }
        tensor_content: "\365\n\230\275P\274D\275\362\221i>X\210\234\276T\263\247\273\212\272w\275(\350\201\276\215\035\250\275\020\373=\276\302/\212>\"\031\213\276\014\366\343\275\000\312\035\273\347\352\215\276\310H]\276\\<\037<\254\340,>\340\3717\275\346EJ\276\322m\305\275\0060r>\037l|>\324\246J>\233\036\032>\242\225q\276\273\331F>\205\310\236>px\340\274@\225#\274\327\367J>\020\314*\276`\231\207>?\241\344\275\200\234\300\273\010Rj>\276o\263\275\234\211\034\276.\224L\276\274\212%\275\251Z\224\276M\247\222=\014\001\035\275*UV>;\023\237>F\267.>\224t*\276\302bj\276\366\324\006\276*\367\232>\300\026\346\273^\203\034\275X\250\036\275\310\302\374\275\306\212q\276gX\260=\206\032\234\273\363\264J>s@\250>\311\014\254=\355\210\300=\'9G\276\317\177\030\276t\341k=\300i\357\274&?\251=:\327\\\276\357eh>\003\017\237>\214\321\200=\371\312>\276}\000\005>\202\251\257=k\230.\276\233\304\206\276\200\343/>~\311\372\275sF\t\276Z\320i\276\251\256\007>v\206p\276V\3477>r\327\026\276\327\022:>\256\356\003\276[\226p>\014S\206\276J\223O>\267\366\264<\2553T\276\274\177\237>\375b\177\276\266\035\251\275\250\274$\276\177\242\211>`NI\276j\200\357=\237#\220>\210\305\033\276\365W\230\276\332\t\252=\203b\214\276\302\252H>9k/>p=_\275\275\246\\\276\016\365\231=nT|\276\3144\322\275\016N\306\275n3\203>)DE=\200\336\275=\272\t\265=\304l\026\276\025\227J>\213\'\207=H\025q\276\316\'\330=\020F\020>\246mL>df`\276\353\244\260<\3535\235\275\347\374`\276\365VD>\013\214\004>\267<V=\376h\246\275"
      }
    }
  }
}
node {
  name: "dense_9/bias"
  op: "Const"
  attr {
    key: "dtype"
    value {
      type: DT_FLOAT
    }
  }
  attr {
    key: "value"
    value {
      tensor {
        dtype: DT_FLOAT
        tensor_shape {
          dim {
            size: 64
          }
        }
        tensor_content: "D\017`\266\000\000\000\000\177&H=^\0263\270q\010\201:1\274\263=\306V\2447\206F\243\270\000\000\000\000\022\014\321\267lr\277\267\000\000\000\000\000\000\000\000\000\000\000\000\247\304}\270}\213\266\274\341@6\273\000\000\000\000\300/9\270\000\000\000\000\364j\222=\271(?\267\363\256\022\274\272\241T=\000\000\000\000\212\334\254=!\003\3066\000\000\000\000\000\000\000\000\024\362\243=\000\000\000\000\336QT=|\2752=\000\000\000\000\255\346\3436\225\310\356\270\000\000\000\000\026\245B\270\251\361\205=\000\000\000\000\272\360\026\271\203EX=>\025\253\267\213\377\357=y\204\233\267\212\317\203;\026E\265\274\244\360\303\266\360q&;\000\000\000\000\310\303\351=eA\242=\000\000\000\000\3145\341\265\231O]=\226\336\274=\240G\355\267\341\3460\274\231+\373\266o[\265\267\340i\273\267T\366\334;-\304\332=\000\000\000\000"
      }
    }
  }
}
node {
  name: "dense_9/MatMul/ReadVariableOp"
  op: "Identity"
  input: "dense_9/kernel"
  attr {
    key: "T"
    value {
      type: DT_FLOAT
    }
  }
}
node {
  name: "dense_9/MatMul"
  op: "MatMul"
  input: "dense_9_input"
  input: "dense_9/MatMul/ReadVariableOp"
  attr {
    key: "T"
    value {
      type: DT_FLOAT
    }
  }
  attr {
    key: "transpose_a"
    value {
      b: false
    }
  }
  attr {
    key: "transpose_b"
    value {
      b: false
    }
  }
}
node {
  name: "dense_9/BiasAdd/ReadVariableOp"
  op: "Identity"
  input: "dense_9/bias"
  attr {
    key: "T"
    value {
      type: DT_FLOAT
    }
  }
}
node {
  name: "dense_9/BiasAdd"
  op: "BiasAdd"
  input: "dense_9/MatMul"
  input: "dense_9/BiasAdd/ReadVariableOp"
  attr {
    key: "T"
    value {
      type: DT_FLOAT
    }
  }
  attr {
    key: "data_format"
    value {
      s: "NHWC"
    }
  }
}
node {
  name: "dense_9/Relu"
  op: "Relu"
  input: "dense_9/BiasAdd"
  attr {
    key: "T"
    value {
      type: DT_FLOAT
    }
  }
}
node {
  name: "dense_10/kernel"
  op: "Const"
  attr {
    key: "dtype"
    value {
      type: DT_FLOAT
    }
  }
  attr {
    key: "value"
    value {
      tensor {
        dtype: DT_FLOAT
        tensor_shape {
          dim {
            size: 64
          }
          dim {
            size: 64
          }
        }
        tensor_content: "\313J\371\275l\311(\275\241\372H=\373\350\022>E\214\013>\312\004\362:\240,\335<K\3507>\033\242\241=m\220R\276\014Uz>\010\325\244\274x ;\275\324W\022\276\316\347F>\266\311\204\275}\360\334\275D\362\027=\344j\346\275\377\010\023\276z\351\031\275\215U\315=(\3544>@y\334<8\003\306=>\276\371\275[\020\r=\2255*=\327AM\276e\300\031>\244-\214>\366\370\335\275\366\313l\276p\247f\276\354\001\210=6\366\240\275k\217D\276\276\276\032=f\346Y>\344\353\201\276\000]n\276\331\271\371=D\017)>\336\340A>5[h=c]$>\007;\202=\302\312~\2768\370.=\354\245\371\275Q\330\\>\362^\275=A\234\214\275\346S\323=\2332\347=\240\301\302\275\270\017\013\276D\217\177=\232\005D\276b{\205=\336G\037>\376\335o>\352\322#\276\\\024I>`Y\346;\372\004\214=\004rn\275\206g\265=\254\364\006\275\244q}=o\371\037\276\300\245\213\274\300\334\206<\241)\030>\367\031\026>\203\210N>[\3746\276\210B\302<\224\t\023\276&\225\242=O]S>\300\204\010\276$M.\275\030\250!\276\330\3460\275r\253\251=\212\006!\276fr;\276\204\\\t=S\206\016>\273\263W>\0224\211\275\030p\366<\210\235\200<\262\240\264=4W(\275\314\373\001\276\336\367\235=\247\r\030>h\363\352<\r\2473>4\263\241\275\346z\251=\3705\034\276\356S,\276\271\276\037>\360y\244< V\201\275\200[\027\274\000\024<<\334\370}=4\340\037=\320O\357\274\343\217&>`#\007\276\300\271\257\273.\220\340=j9\372=}\357\027>F.\247=\243\335,>\256\275\345\275\362<\367=\257\211\002>?\034\024>\215\027X\276\344}\345\275\020_\212\275\006\230\221=e\256\020>\035\260\202>Teg=\325\033\240\275\355iG=N\273\243\275\314\212P\276\017\322\244=\312\267==\263\216\030>P\305\206=d\242x=\214\201\026>\320\005R\275k~c>\000&\t>5\336\006=Ij\026\276\334\302(=;\233\330\275\024\333=\276@\317q>\300\014\022\275g9|=4p\013=\260\002\233=\267e\336\275&\237\014\275\312\221\306\275\346\364\375=\215A\361=\311\\\303\275\200\336D\276\353\262\032>2m\n>\000o);\220R&\276\237[\320=\216#6:\252\270E\276\231\306d>\222\351K>GNV>\371\2775>\217\336\002>J\246\'>e\037\314=\031(j\275\251%=\275k\2667\276\300\030\271=\346\177\277\274f\265J\274\250vE<\376\000 >\005\341<>\216\3030>9\202\277=\366\032\234\275\265\351\337\273\177\210\370<\t\262S\276%\223\277<`\275B\274\360\265\304=uTD\275\276\337\013\276\332$2\276(\203\033=_\343%>#\363=\276\002\210Z\276\303_C\276\230\004\177>\340\265,\274\370\361\251<\236w\371\274\277K\260=\370:Y\276\346n?>\"\n)\276\226\014\266\275\306m\032\276\002\326\375\275\301\312\001\276\0032.\276\207p\006>\346\226{>\266\251%\276\217}\252\275\357\322\031\276\\\323\034\276\240.\023\276\001\022->\032g.\275\225\336\222\275\267\311C\276\237\351\026\276\003\035t>g\274\031\276\020\331\374\275<\351\"=C2\207\276gSO\275\237\240\r=\316\3064\276\316\230\365\275\0338\357<\300T\342\275\261r\225\275g\274\361=\340\270\031\276\327\275]>\377\236d>\343!<>\253\257\215\274\0063I\276\n7\203>;\362\'\276\242\334\241=\nwz<\351\252\006>FcA\276\201\260@>j&\244\2759\353\244\275\225%\200>5y\n\276\027;.\276\355n\321\275\337\375\331\275\357\273\267\275\235\013\314\275\365\016G>d\251/=\275\201\\=\025\346n\276B\334=\275\374\022\235=`g/\276\310\304->\332.K\276U\336R=G\032\002\276\032\221W>\307\243\306\275\270|\270\275Wr\004\276\351\0019=\177d\341=0\372#\274\002\326{>N\345S>\034\200*=!B:\276\010\023U\276\247\260\352\274m\364,<O]\027>jHc\275C\274\'\276\2242\337\275\331\324/>\372v\032\276\327\236o\276H\304\341\273\376Ds\275\267\334\014=N.==,\376\204=\363\274\276\275\366=\007<\271\331Y\276t\355\340\275\263\356\035>\020\374\030>\337\250=\274;N\021\276\341\275\263\275J\320R>-\242{=[\2165\276\221!J\276<\3209\276R\225\220<\200\006O>\374\360s\275!\035Y\276\206\301\014\276.M\026<\330u3\276\376\361\037\276\343y\t\276\252\313\026>/Z\022>\306\350\177>\234\177.\274\274\314*\276\323y\010\276YW\200>u\213\245<\0270\267=\344$G>H\255\223\275\350qa\275\001\224q\276j\244I>LUl<6\333q>\355\303\210>XE\210\274v^5>\322P\010\276>\262\315=\nb\256\275\324\"\024\275^\336\352\274n\320\240>O7\022\2756W\016\276!\345\010\273\332\346&\275A\354\307\274\323\222z<1\335\222>F\017\030>\341\312\333=\271\346\311\275\030\315\203=\006\213\260\275T\221Q>N#\003=#\357\216\275\237-\236>~\036\000>JZD>F\2164>g?\370\270\036\350E\275\\M\320\275\260\266n\276#h;\275\020\034]\276K\0055>\223\375\321\275\032\313\330\274[\006\313\275V\375\311\275\"\215\347=1\026O>\256\220\231\275*=\370\275\276\034\202>\023v7\275\377\005\341\275\315sQ>\300\346\303<\036\377\007\275\365E\225=_\342\347\275Pj\266\274\330j\r\276\302\233\303=\214\3368>w\031\263\274\220hv\275\nX9\276\006&\327=\324#,>Dr)<:Vs\276j\236+>\263M\'\276\271:\346=\037\212.\2768\347\233=e\305\006\276\325\231\332=\253MY>\031\261A>\036\275\217<\266~ \2767\320&=\377 ]\276\257q\010>\206\001\315=\356\332\372\273\256\204a\276\362OZ=L\365N\276\031\036\205\275\317a\327\275\243\371\230\273\025\324\010\275+\305\211\276\234\352\317=\026\353\212=#\344\017\276\377\260_>\360CI\275*w\217=\177$*\275W\303\031\276<\234O=\362\303\251\275)\233\030>\326L\033\276\272\376\036>\367\263 >\241>3=)d\004\2767\277\204>c\336R=\007\033\021>V2\240\275\253\017\250<\375\030\010>\"b\361=\034\342\013>^Y\274=\240\271r\275+\261\037\276\364A\352=!\303\364\275\370\037\210=\002\306\315\275h.H\275\003\372j\276\324dN>2\335\355=\345\rq\276\302\241\\\276j\307\005>}@\367\273\246\003P\276\234\017\367=\205\364\266<\022*{\276\271\212L>\327\235\351\274\264&\266;\357^\032>\232:\367=\003E\326\275\304\364>\275\235\310\235\275\245\364\\=\033\274\021>\224\353t=\206\002\205>\232\376\211\275\033\266a\276P\004\206\275\330g\335\275\321,\017\276~\270\211\275\354\363`\276\024Z0>\224\337\355<O\340\232=\264&\244\275\034\276\'>\261z\251=R\361\314\275R^J\276\334Jt\275VO\\\276\315\302R\274d\253\330\275q\207\004\276<\021k=\3368\\\276\220\373S=f\251\001\276\333B\232\274\341\325u>\262M\017\276C\004\n>\203\232\025>\365\226V\276\323b\214=\265\363\212\274)\244[>&\025\254=\020\317>\274V\255\211=\276,\347=\302\231\230\275\264\374\024\276`\304\017<\\Bj=\020_\234\274\244\265\215\275Do\n=\231\177\r>\036\270\242\275t\014\r={\251\">\0266\345=\243\201>>\220\2759\274\272I\346=\005\375$\276\177*\"\276$\272Y=\2140d\275eHC>\351\232H>\006m&\276\246\322\375=B\305I\276\220\227\326\275L\240/=\210\3403\2764\377\223\275\007\275\313\275P8\221<\362X\227\275\\\023*= S\246\274+\341\364\275e\346K\276E\227(>\216\027-\276\332<\225=\324\211\014\275Z\023\304=nq\005\276\254\013\023\276\310\2626\276\2368\014\276\334\310\010\276\232I\277=\260\261X\274\254\373*=\304\322\004\276P\223\241<\374w3\276\3655H>\257\323X>T~\n\275*\202@\276~\231\227\275L\3331=\000\304%;\300D\263\274\206\322\312=>\2055\276y\020t>\222\217x<,\277%\276\244\033\007>\214cm>\000>0>F=1>\347d\202=\377\306Y>\036\304\201>X\230\343\275\020\366\010\275y\027\206\275\273\205\356=\267\264\353\275ip\352\274:\247->\363\027^\276\025g5>\\\273\341=3h\'>\354\371<\2762\341\300\275y\025\226\2756\311\216<\3649\301=\350\006e\275\266\207\211\275\255!3\276\374\252\346=\356v\005\276G\264\201\276S\333\035\276\257\rF>\030\031\177>D;\034=\270\032\355<D;.\2767\242\037>\240$\235=7\311\273\275\314=F\276\255\2251>\302tg:I\306/\276w\312?\276\214\367\362\275H\253\212>\020\257\236\275\306\301\326:0\351~<\357\tB=\274\"\r>\2578\314=\353S\260<\"u/\276\324\222y>\266\347\353=\346V0\276\327>\255<i\242z\2764e0<$kt>\342K\252\2756\030\314=Rc\332\275\324[Z\275\220\373\353=\230G\003\276<\253N=\030\276\231\275\370D=\276bF\034>\265\022j>\364\366\347\274\210\3551\275{4x\276\335}\000\276:vK\276\302G\313\275s?\265=\276\351\322\275H\354.\2757\320\317\275\022\010\221=\203\203=>\243\274[>\352\231E>M +\276\344\301~\276\035L\245=\3654\023>\320,\025\276\0217\365\275G\257H\276\274\307\356\275\212)t\276\326\257\027\276)x\030\276X\271\326<zQ\330<:(\373=\335\322\231\275\265\030u\276\216\272D\276D\326L\276\\\333\245=\277\350&\276\003\317\250=\216\370-;\352Z-\276\377\357\031\276\214\300\313<\372\332X>{\272\017>2N\347\275\267\\\033>\207\307\307\275\236RB\276Z\341i>\024\316\215\273\374\304\350=\264\332\037\276y\2361>\352\233\034\2768\233\026\276\371\361k>\216WA\2760\366\213<`\247\254;\014n|=\375\203M\276\305\272;>\246\222\310=\363\266P>\\L\001\275\370\274\203\274\352\003\302=@\343\240;\300\275\254<%\271\r>s=\007>\273\351\023>\257\200*>\303\204.>\35145>$\367\211\275X\225(\275\007\242\036>=\237\035>I\202\'>\250\372\260\274\217\277\020>f\330\332\275\203\226\004>c\326\027>{I>>6?\356=d\236+=!\357B\276\254U>\2750g*\276\240}H\274\032\263\255\275\226\013\223=@!\256\275a:\037>u}\'\276\226\347\003\276LW\024\276\306]\205=\002}\375=\300>\307\273\014\305\373\275\362\013\302\275\036\266\'\276!\263\020>\2008\r\276\323\202\036\276\350e-\276\3721\255=\276\363\262\275\340)\240\274@\007\227\273\315e\342\275g\340\377\275\376\267\256\275\345;.>\270W\251\274\234\005C=\264\3508\276\001t2\276\317\241\035>\361\360\001\276\300\006\346;\212\006$\276\264\006$\275x{\254\275\335\'5\276\360\014i<F\342\344=\223\3575>E\320;\276T^r\275\021\3213\276\242J\244=\207\251J>\266?\263=\364\255\r\276\365!;>p\016\007\275\022\303\217=LsB\275\321\347,>H;\324<\000T\202\273c,]>\304o%=\026\262\262=\"\365\342=\020d\221\275\204\340\272\275}`->\016u\344=\204\260\257\275\331O2\2760&\354<a\300\023>a\314\013>\000a\266\272\3636#>\240s\256\274\360$\201\274`H\213\275\260\372)\2751\r\277\275\244\243b\275\257\356\023>\345\363\021>6+\365=hS\035\276\006\322=\276\255\'\036>\200\251\327\273V&\014\276\222p\314=r\\\272\2753\252\373\275\301\2523>\340\\\327\273 \320\032\2744\310\342\275~\270\226=0\231\233\275\365\023*>|rv=;e\031\276\264\357.=o\014O>\002\250\312=\034\315 \275\001!\014\276\274\311s\275e;1>\320\220\035\275\026\345\341=<hE\276\22532>z\237\256\275\3002\373;\300\221\023\274\311\232A>\014\'S=@#\236\2758\364\234\274\324S$\275z\t\302=\337l\333\275\251{D>\225\217:\276\227\347\006\276\322\3261\276$?\222\275\236\213\243=\030\336\261\274U\022O>\312{\335=\000\364~\273\207l\367\275HZ\270<\020[\372\274\251>B>\006\241\255={c0>\243\211\025>\314\017<\276hi\332\274\321,H>\265\200\010>`T\351\274\334-h=\025\201;\276Pq\353\274\205\022\032>\020o\021<\221JS>%\271,>\244$\214\275`\\&\275\020\324\276\274@?\364\275\262\266\027\276\234\234)=0\214\325<5\375\320\275&\204\215=\266T\272=\305\203\006>8\212\317\274\022\034\221=G\242>\276\211S\t=L\273\016\275\316g\324\273 !\017=c*\363\275\000\225\264\275\205\234\033\276\255\364\312<\374\302r=*\376\205\275Z-\377\275\312?\226<\322\237\375=w\262\265=\014c\245=\374\004~\275\334E\371\275\030\004\375\275\352;\204\276\322\364\025\276\365\331~\274G\224\031>x \220>t\312B>\266\346=\276!E6>\031i<>b\223_=\030\260t>\304\250\003>5\333\353\275\250\201\211=\354H\003\276\210\356\344=\007_:>\343\332#>n\232\241<i\271&9\273b<\276\272\217\025\275\364b?\276\231\036^>,\350I>\363\2170>\214\030\035>j|\022=$\270u>\332\347\273\275\361Uq>\265$s\275\263]\362\274\225\312]\275\025\306\206>\373l\022>\013\016\004>\210\302\274<zNI>\250{]\275\211\212-\274O\242\247=\014\013S\275\343a\261\275\n\274\213=\003N \276D\233\240\275l\3210=\330f9\275\216\214E>\000\271\221\272j\201\313=\014\253\205<\243X9\276\035FJ\276-\342\332=x\351S\276\320\3605>\021m\260\275\351\246;\275\373<\370=9L=>\261\323>>]\0365\276%\301\024>\002\355\215=\303\214\372\275\0245W\275\344\300\020=\210\333\234<\330\376I\276\211?\032>\323]\304\275\352*\204=1/\275=\246\2434\275\322\037\367<\311\027\343\274\201\363\020>e\3320=\341\305\n>C\2434\276|H*\276]z\346<\256I\002>VV\335\274\366\363\n\274Q\363?\276\007\325=\276\227\254e>\006\201\254\275%D8>+\266\255\275V\3767\2760\333\361\275g:\036>\202>\317=\021\267:\276\324qr=\252A\032=p\220\351\274\216\212\370\274\215\304\304\273}\260,>\2645X=\3665E\276\223\3340>\313\340\017>]\016N>\221\0364>\237\344n>\342\210\247=;eZ\276\3511\200\275=S$\276\n\033\260=\366\006b>\223\231*\276\310M\000=\271&\241\275^\223\355\275\251\315G\276\311{\262=\354\002\251\275\232\262\324\275F\226\337\2758\177\341=\354\231\036\276\247m$\276\260\374\362=\204\274;\276\334r\214\275h5\320\275\314m=\276\005\351\r\275G\023c>\236~\017\276\254g\000\275s\034\324\273?\004W>\000\273z:.\343\244=\262w\231\274\372\231;>p\017\344\274\035,m\275\342\0345>B=\036\274\210\202\014>\023\021h\275\234T\037\276]~m\275^,\\>J\302?>\336\304C>Me2>n\344L\276f\232G\275<\257\031\275,\355\030=0\355\n>\007`<\276aFA>\322\267\343\275o\311\014=M\344\357\275\352\365z>\200\034\r<\254\337?>v\351;>2W7\276\000Ma=%\310J>\206\035\376=\300H\213\274,:\001\275\340Y\260;\254\352w\275@]\223<?y\000>\336\247\013\276\244\315|=\334\313Q=\217\003\334\2750\226\236\274\332\002\311\275e|\001\276\270\266Z\276\230\034\342< \323\253\273\340\225\365<\240\024\241\273\034`7=\265\322.>\264\310\014\276S\316:>\203\024\030>\236~\253=\002\273\364=\234\345r=\204\304\007\275\224&#=\263\020\024\276\364\272\037=z\303\333=\320\273g<\332=\236\275\200q\237\272`\021\352\274\260\000\251<\232\373\252=\260\007T<i\256!\276\212\203\030\276\004]\003\275\340LU\276\230\2139\275\013b\030>-3\033>\311a\'\276\226\211\267=\340\226K\275\324Gx\275BD\307=@\200\343;\230$\355<d\353R\275\034\275R=\371\243%\276\312\300\247=\366v9\276\\\032E=\362Y&\276\300\017R\273\014\020\035\275\346m\001\276U\363\025>I{\210\275\236m\211\275 \217Z\276\250\025y\276a\215\\>t\035*\276$\370k\2754`\031==\'C>\017<\202\275\021w>\275\264\031[\275\032\334i\276\262\211D>\266\246{\276QJ\210>\372\247\013<\324\335\260=\314\257x=\276oh\276L\017\346=\313\246\327=\2749\036=\252{\336=G-=\276W6\237=\252\0313\276\376\363\215=5\307\316\275\rc\312=\003-\017\276\336\322\277<\363s\032>\033-s=\tC4<[\346\301\275\374\215\274<h\252<>J\266\352=\027\302_\276\340\301`\276IKS\276\026x\202>W`\372=\017\315J\275\237d\013\2766P\220=`7\t\275\360\211g>\217i\321\275c\371\037>\345e\337=*\344\255=]\355p>\370A{;\260\375c>P\372\'\274\036&\271=\177Z7>\354\202\002>\352\277\271=\240\355\320\274\325\237m>_\210\\>\233k5>\234\3216\276\000\201e\275\366s\353=\030\351\257<~}M\276K,\362\275T{\255\275Ko(>\276\r\214=\016\355/\276\240@\004\276P&\037\276%\261!>];\024>\234\327G\276dC3=i\023\022\276\304}F\275\002<\001\276\361i)\276\255\210N\276\207\352\353\275\327\004V>\3021\207=^\205\350=\356e-\276\312\036\232\275\322\246\031\276*\343\332=\316b\252=\307c>>2-\263\275:\315\025\276\277\250P>\206\261\203=\334\n\201\275\240?t\275\216\363\262=F\237\266=\010Z\362\275\356\327\305=\013\033N>\010\323\020\276\0203\211\274R\313\214=\200Dx\274\033}9\276p\207\016\276\026T\266\275N\031\247=&3\260\275\004\217|\275\244\005m\275\322x\367=\024\312\307\275\010.\006\275\201\2364\276|\240\026\275`\363\"\276\332J\010\276\355cI\276`&\016\274t{\r=l\014I\276\030\006\253\275\277i\326\2759>O>k%\"=\023_+\276\312g\326\275CI<\276\005\325\022\276\232\240d=\357\335C\274\250o[\276\\\344\205=\245\357\202\275\202\243\342\275;f2>J\215\023>V9`>\246)\014\276\010\363\020>\340\216\034>\226\220\353\275\331W.>\3403\017>!\340$>%\036\272\275\276~~<v\021\360=\000\254\305\273\351=\240:\311\355(>\244\221n>\224W\261=\251\224\026>G$\315=\320\255:\276\325\330\300\275\227\240\025=d$\350\274\276\350%\275h\303\010\276\001\315\017>\004`\000\276W\355\313\2755\221 \275\325\027q=#m%>\304&\375;\257\003$=\240\343J>\357\242\205\275\213E\367=\221\302/\2765l\203=\\\233i\275\035\203\002>\203\233\023>\331\2311>\370\356E\276\322\226%<\274\371:>\351\313J\276)\345\270\275\020\000\231\274\004M?>@C9\276]`\033\275\016\030\340\275\346G\344=pE4>\t\326\236=MA\026\275\300\014\325=\322\032\037\276\227\347\027\276\366e.\276[\004\361\275[\314\206\275\267P\201\275\353\214Q>\234e\246\275l\'\377\275\217\324.\276\270\220\213\276pb\006\276G\337|\275\264Q5=\035\276P\276\276O:>\006\315\021\276\230\306\006\276\206\375L>\363\344\213=\267\203m\274\250\202w>14\277\275O:\004\276\275\340\037>p5D>\027Y\t>\266M\337\275>\375M\276\250\247\201\276\313\2707\275\237.\231;L\363>\276\300Df>1l\022>\361\037\301\275\033\330\350\275\337\270\023\275E\355\353=\264-\r>$\177\031\275\034\232\231\273\300iT\276\023\260\344\275Y\276W>(\267\006\274x\230\024>\335\033\361\275\r\347\231\275\3661\355=\243\207\312=\022\nH\276*\376\220>\327\223\034>D\302\034\276\341Ma><\275t\274FZ\033>\222\360B\275\211Q^<\223\311\001=\272\031+\275\311>\362=\007\r\304=\204~G>5\023&>\374\217%\276\3066\365<\220\3267\276T\221z\275w\222(>\206\002*\275\236q\024=\341\031V\276\304\243\240=x\036\014\276}:\243\274\326\231\202=\261|\315\274=\013\346<\245\177Y>P\n->MO>\273\017\255\214=\375q\242\275\300\016\247\275;=\240\275J\322]<\254W\312\275J\320 =\372\205\354=\302\337+\274\266\024\275<\357\233\361=\376j\033>\333\026\021\276\027\211\207\275\260E8\276\323\023\242\275`\245\331\275ul9\276S\247\273\273\220Z\\\275\340\210\255\275\373\357V=\227P%\276\327_\320\275d\353&\276i:;\276\221\003\236=6K0\275y+[=\252\024\260\275\320\304\265\275\314%\322=\350\326\314\275.\321\025>\355\235Q>] 0>K\000T>T\373\317\275ds\377\275>t\330\275\334\302\227\275\215\354\027>^\035\013=\\\\M>y\335 =\271O:>A\252\306\275\220?\207\275\001\2302>\237Z\020>=\321\311=L_0\276.t\325\275\324\224_\275ix\r>\3063>\276z\270\231<A1t\275\"(\370=R~\266=(\304\221<\213\031\331=}Q\327<\320\226\033>\224\205P=ktK={^-=l(y>\365\305[>\t%\264=VA\204\275f\273\270\275\220\304\036>\212\350\263=B`P\275\366\003\372=\2719\030\276?\226\025=\344\335b>\2676y>\313S\014>B\257J<\212\277=>\353\323\260\275\335(\031>\271\n\3439\242&\310=\217\013\003>\240b\264\274l\230\003>\253FS>34t\276H}\315=\201\325\177>@d:\273\254g:>a\2425\276\021\346\001>*\233\250\275\313\343J>\373\246E\276\336*\272\275\210$\201\274D\306\255\275\303GK\276b9\020\276\200\270\221\275D\177.\276\260\364C\2750\324D<gRV\276\347\2623\276\257?8>\032\215\337=\364\362N\276\014\351U\276\324\367:\276i\206J>N\304\366\275\203p\r>\342\370\250\275v\253\233\275\307\257\002>\362\310\226=$\263\250\275}\330[>@\340\330\274\352\201\334=\267u1\276\217<P\276\204\226;\276\270t\251\274\207m\007>z\010\211=\362\253\351=\365\235M>\210\303h\275\366\223\351=\000\251\221\274r\316\213=\330\306\220<\266\363\201=\032.\337\275\214s\256\275\250D\211\275`\010\223\274\000\367\365\273\203\"\323\275NXD\276\010\322>\276\344\367\005\276\250tB\275\306\210I\276QqX>\200\0175;\203\266\373\275Bb\232\275?--\276\262\304\304=\334\2443\276\320\003\006\275\344\275\177=\377\217Z>\274\350\007\276\306\202\321=\021\344\254=\373\365\325<7Q^>\024\234\037>\264\205 \275\017z3\276\177+\n>T6\273\275{\034\020<\243-v=\327\036T>\2663\261\274@\337A\2768$D>#\245b>\321t\261\275\215F$>\177|\320\275\001\205c>\360)\300\275\321\324=> \376@\274\0067\013\276\2530P=\3672\302=\245\206\300;TLQ\276\r\003\233\274\232!\315\275\304A#=\304}5>\257Z\370=b\351Q\275w\204\021\276\206x\274=\264\013y=\274I_=\024\034\016>\324\320\203>\225\270Y>*IC\276\353\327\017>\216=\200>2u)\274B\327R>\346\031#\275dj%>\275-\263<\013\342\224=\320\234\341\275\205\306\000\276\022/~=A\007\017>I)\022=\niR>\2430k\273Q\236\r\276\210\335\335\274Y@\347\275_t$=\202\243\023=\244\220\r\276G[I\276\310\030\010=\'\3164\276\366;\216=|En\2764<#>\312\2306\276^\1774>\265\373\222\275\246\301\225\274\207\323m=\337\367\273=\252\217\352=\354\225/=\177\353\200>W\327\337=W\001|\275\357\322\340\275\356\352\024\275k\311\024>\251\035[\276\021kP\276\036\036\243\273$V:\276\236\377\023\276\275\347\035\276\237\223E\276\323 \325\275\031\177\257=!!M>[k)\276\364\\S>\343\275\032=v\275G\276;\230D>h\005\007\275\014\032H\275\355\212\247\275\242A\205\275d[\023\276,\313\332\273\013\177+>\253N\014\274\206\353\342<\255\211N\274\030@f>\307ba\276q\2313<\247{\360=\305\320u\276\342\002\032\276\016\0013\276;H\253\275\273`\274\275\332\277\275=\317/\025>\037\210S\276\311Z~>\200\245\030>\347\365P>\365\326\331\2746\230\236=\255\321v>\261%\247=\246\017\323\275\262\244\357=\360\014\003<c$8>\221\021!>\356\203\377=\304z[=\204+O\276\000A\330\274\376?\261\275\356g\323=\267{T>>\233\351=\233ZL>\344Y\322\275\264s\020\276\177\\\316\275\266\362\344=\313\326\345\275\016)!\276#\332,\276`\327\n\276@\342\360\273\340\347\234<\262\356\226\275v\362\272=\303\255E>f\023\236=\027@]\276P\336Z\274G\027P\276\342\346\340\275\021\315\033>\324Cp\275\274\306\035=\244\237t=f\220\360=\250=\215<\261\234\035>\314\276Y=\343\3509\276\212iA\276\240K\375\275\344.\034\276\220\261I\275D\264\026\276\312\252\204=\000G\022;0\357@\276\032L\306=\020G*\275\322\024\010\276(_p\275\315/\025\276\001dX\276\270\210\370\275gC\371\275\350\357\003\275w-\021>\260RQ\276\224u\037=\245\275\006>\253a >\032\211&\276\251\215\375\275V\360\014\276\200S\351\272\310@\273<~\262\221\275\364\350D\275\020\360\314\275x\214\t\276\230\226\200\274\300_\033\273\272\334#\276\24422\275`|C<\317\2111>\254\354\217\275\262l\202=\272\266\333=*\003\353=t\353U\276N\245\272=b\212\253=\250\365\207<:!\032\276H\347G\275{\020D>\200_\217\273\240\000\346\274\343\302U\276\321Z\374\275\352X\233=\344\354:=o\252C\276V\231\350\275\326\210\005\276\300)T\273\017\014O>L\266D\275\216\277\242=\332\323\356= \3059\274\333N[\276,5N\275\000?\320\272\200Y\374\274\234A\323\275\010\216\276<P\270\000=ywW\276x-\022\276\177\247\327\275\014\326I=P\006\322<*\027\335=\344m =\200\215\241;\002B\237=\320\026C\274\246\367\247=H\270\372\274\343\361\321\275\372u\340\275\347\2140>J\310[\276_\036X\2766|;\276/I\026>\247p\302\275K\025\251\275<\020\316=/\303 >R\212\025\276}&l\275\211\0104>\216@\346<\265f\006\276\013\255j>tw\353\275O\340.>\232\264\320=V2\330\274\324\032Q>\303\200e>v\354W\275j;\033\276\256=\317=P\220\360<\302\371\352\275\370y\321\275~\227\326\274\006\030X\276\010\321,\274\262\007\021>\027t\311\275\243 X\276\277\377a<zwl>\nG\\<\371\306]>\2425\010\275H\255/>\243pG>\243\017\366\275uh\323\275\235\220\r>\021P \276\2040a>\360<p>J0\230=/X\336=\367`;>\257)\374<\037O\237\275\224\232\244=\262\311N\275&\337\232\275\346H<\274{\276\222=\017q\032\276\303x(\276X\312\026\276\220\237\363\273\224T\t>g\214;>\000|3\271\311/\200\275\227\265\244\275\303\010%>To\224=\367\214!>\031\3520>\366N\276=\003>W>\250\025\205\275\244cD\2766\346\244=\367\322\326\275uh%>\320\210\n<\203\313\010>m\2512\276nD\244=\366\333\010\276\275zA>\342e\317=\331\004>>\256\374&\276\351\216F>t\220\037\276\3648v\2756\304@\276\364.n=\255\334H\276\336i\232=\306\346\307=\340\371\371\2744\366\213\275\331\2606\276\226\277\266=\260\017\200\275\317\222X\276\220hR\275\200\305\010\2766\317\273=\336\327\033\276=bY\276LS\035\276\245\202L\276\016\306\n\27679\315\275\240g-\274\300b)\274\000\252\363\2729\237\">\022\207\324=\271\220R>\220\007i\275a\036\337\275\200!\357\272\\\226\n\275tO\030\276\371\2045\276\320~p\274\364\010q=\300\275\035\276\232:\230\275/\3342\276\023\035\314\275-\272\340\275\300\034w\274\253s\275\275~\360\224=\246\247\022\276\032`@\2765\325\307=\003S;\275\255\367W\274?\2115\276\236|\037\274\234h\326=3\241\341=\355\244\007=K\016I>\350\354\014\276\225U\034=\320\'\275\274\372\"\025\275\231\266\023\275\260\203\006>\210\240p>?\n(>\231\357a>\327\340?\276\216f^>R>\306\275\205\031\'=\377\325\343\275\251\270(\276f\276\304\275\216r]>\0243\361=d\0206>\243\"R>\022\'B=\371\203\205\274\376\rO<\037\205c>v\2370=M\355J\275\271\240\"\276\226\363n>\365\345<\276\020 \026>\305\316\034\275O1.\276\241\371\247\275l\032\244\273\312\256\354=\016\202R\276\314\0244>#\'e>\033\343A\275\006\272\340<\345T\303=}\257]\276\331P\326<;\344\327:d[D<\226\204\347=\353\353t\275\340\'\376\274F\034\024>+\330\354\275\307\023\203\2751\201\243=\323\211a\275\320\030*\276\273w3>k\3334\276\337UG=\0047\220\275\027h\025>\260\213!>\254\200%=Fd\225=\316\315&\276\t\210\207=\"\031H>\026\343\357\275\222\231\204\275\263\004`>V\223\332=!\327\'>\263\254t=[\300\223\274\333\375\220=\300\013\330\274\262\003\n\274b\340\313=\315(r>\n\037B\276\376vU>i\231\007>\317\304\207\274\007fd\275v\276\016>\014@\270\275\337+\354=\005Q>\276\357\2751>\377o\247\275\261yE>\243\327\030=\220\017\345<\324;\210\276\246\350\343=h\316E=\000\265\254\275_\373q>n?,\276\250\031\007\275%\207F>\205\371\356\275pj\027\276\00774>V\216)=\365,\200>\227\266\005\276\212 F>b\300+>\'s\033\276j\013\225=\034\206\'>.\261\326<vN\310=\2027\244=\000\202\201\273(\004.>\3159]=\203=\017\276\261\211\211\275\003\033;>\212\274)\276kPZ>\310 \230\275k\337\023\276\263\230\"\276\034%o=\276S\332=\361\006\036\276\236\331\014\276\231\343%>\240\005\033\2761\237,>\000\r\037:2\225Q\276d\271J=a8\022>e\"\336\275\220\311\000<\372T\\\276XZ\203<\210G\233<\355\177\341\275\337\213S>%\215\'>\211h\000>\240\227\003=\251q9>\320\031\210\274\270\277\376\275\262\345\364=\360\021\254\274\242\277\312=\3761\360=\372\341\316=S7%>\275\016;\276\220\201\220\274\270\241\375<,Q =@e\322<\241\3555\276\370[\224\274\250\267\303\2750\214\266\275F@\376={-+>p\263\260<\024\245\025=x\253/\276\21723>78\n\276\364\0343\2751\236>>]K\">d\267\\=/9@>p\"\'\274\362\027\270=\200\304i\274\013\362\034\276\243\262A>\300\350\026<\272\017\037\276:\347\312\275\213}\027>\033\274\n>3wI>\237k$\276d\272a>\241x[\276\251\241\021\275(\374\001\276^\017$\276\261\223@>\\p\216\275\335\210\n>\256%\226<K\245 \276>\347L\276v\341\212\275*\026\030\275*gb\276\300\003\'\273\326\343Q\275w4C\276\017pw\276\020D\261\274\341\307m\275\344Q\215=\367D\200\276\221\272\016>\242\352\220>\206\335\372\275\305~\217=\366\210R=\302\351\364=C\250\\=\245\343\003\274BmZ=\033\014D>\270c,>\220\022\245\274Kk~\276\354\334\202\276c\303\205\276&+=\276\265\2062>\3054J= \226\350\275\222\200\031\276\273Lo\276\353\253\216>uz:>\n|\036\276\005\262O\275\320$b\273p\304L\276\346\353\375=\232-\031\276\217]{=\262\214\372=\313\301\264=x\345\240\274\233\200\212=(\216l\276zZ\337<JG\303\275\270v\003\275\244\'\260\275\313\334g\276 O^\275\005\244Q\275!\374\316\275A\355\007>\270\2663\276,\355\351\275p\247c\276\265\022\366<\274\250\344\275/\204\027>)\301\020>\t+G\276\024L\262\273@\213\350=q\237\324\275\003\331\200\276\274T8=\001\330\370=[a\337<\023\350\020\276lU?\275\321wN>\201gE>Y\312&>t\353\333=\312\t\215\275\354\007/=\367\302<<\357 \007\276\\\327\255\275\337\310\205=\364\031\334=\330\375\n\276\342\324\245=\211\212\021\275\242\312!\275\210\tS\276Y\302\345\275\344\322\201=\203A\256=CF\021>R\'Y\275\314 9=G\235\211\276B\234\023\276g\014\367\275\201q@>*\351\017\276\364\'\021=\300r\257=\033!X>\302\r\223\274f\330\364\275\"A\204>^%.>W\265\341<8\'\335\275\254\026\276<\245Fm=,h\002\276\354\254\010>%M\351\275O,,\276\2020\325=\355G$\276\020M\241\274\264\177v\275\256\0332\276\227:\007>\247s/>\342W\013\276|\n[=\260\346T<\'\3054>\334\310\033\276b\035\240=Mt2\276@#v\273\3320]\276\276\367\320=\335\001\021>*JL\276\300/\201\273\362\344\247\275\314\212\\\275V\235\233=6\332E\276\024~\273\275\320\3329<\304Jp=\000I\320:`\224e<<\2745\275k\304A>\216\257\301\275\212\217\203\275\331\236E\276m\261\024>3\257\035>{\261\026>|2\'=\033\231\001>z2\375=\246\006\227= \255\014\275@V\250;\036\\\342=\340@\215;\326\032\213=o7\311\275\014\330\024\276m\334 >r\201\217\275\325XQ>\256P\251=c\345\t>\314\330z=\364\261\023=\253\254\007>\027\203[>@\\];\3669\377\275a\255\026\276\340\253-\276\024\010\253\275\332h\210\275\252\347\377=\331\222\265=&6\351=0Ik;?\010&>\247\224\336=\254\360&=\216L\000>\304C\317=\230\203\261\274\033d,\275-\356P>\241\214i\276\313\361M\276\030\266]\275\305\013S=s\242r=\361~\276\275\265\373\027\276\006\213e\276k\003\002>\272\366O\275\020\017\\\275\243\024\330<gJ\021>\270\335\367\275\243\276\367\275\036\265\036\276\336:&\276\tL\201>F\315Q\276+\305\350\275\256\017\257\275\r\253C\276\2363Z>q Q>\332Y,>\257\216!>F:\027\276\216DD\276f\332W\275_O(>g\234\334<\321\366\256\275\230[!\276\213\241W\276\206M\n\276n\"\230\275Jy\223=\277\236\201\275h\220\317\274\202\234\343\273\'M{<\374\032\013>\320\307\300=K\214;>\327\366\317\275\334\227Z>5\3521>\200\nO\275\274\036\244=\231\210\274\275\005q1>\tVZ>\301w`\275(\237\005<\341\273\016>\031\212\315\275\260\013\227=l\322\013;\036\200\240=\374\233)>/\002\\\276Z\335\265\275H; \2760\216\323\274S\242\334\274\303\177\017<\253\377a=\243\313\245=\017U\273\273\227\354\313:6\005\270\275\2045\257=\374\246\034</\225\276\274\274\356\257\275\230Q\304<J\324\037>b\342\301\274\246\\M>\251\271,\276\217\277\266\275\305\002\024>I\321\343<\006/\227\275\313\005h\275k\360Q\275\352G\014=]\352Q\276.\376\332=;m\025\276\242\250\006>\256\337c\274[\274Q>\305#\330\275w\333C\274\021\315\336=H\026\247<\010\035=>\212\307*>\2516Z>\201\301\244\274\241y\356=\222\312\260\275\240$8\275_\025\272\275\253\343\036=\231\221w\276\362\210\257<\377\371y>\250\032\026>\300_B\276\\\333A>\357\277\005>h\321\024\276L\0009<\326\265\316=\226\2673\276\003Y\001>k\242J>N\362\314=\374\030:\275\232@\243=Z\300\245\275\320\272\024<}\221A>n\340\324=\345\321\037\276\353I\'>\235[\303\275\370IC\275P\3509\275\246B\310=i85>X\351\224<\272Y\001\276\320\2373\274\205O->\200\305^;>\271\'\276\334@\006=s\004\346\275\254/o\275\226\211\313=\240\357\372\273\25426\275\007\020I>\260\177<\275\314\025\021\276[\004\t\276\277\253C\276\241qZ>\206\"\261= \370\203;K;\025>\032\264\374=\322F\276=\277\275\r>D\333-=<\0148=\250\214\360\275\002\260\265=\222\200\203\275\335-@>[\237\030>\255O6>\327\0160>\262s\215={+R>gb=\276p\306\245\275\351\'\'\276\\)\367\275\346\246\356\275CB=>\241\231<>\024\302Q\276\t)/>\311\352G\276\002c\343=\333y\004>j\331\366<\327q\207=\334\3166\276/`\250\275\016\370\r\276ec/>My4>\274%\235=.]\031\275Z:j>\343\225]\276\261T\014>Yf\271=p\332$>_\364\201=\267\016\263=\036\374]\276Z\366\234\274\2632J>V\\r\276\244\353\017\276I\322\224=\2178\\>y\332k\275Y\237L>\374\2149\276f\322%>nK\334\275\007+2\276\t\240\217=}\365\227\275py\002\276c\027\221\275\177-i:\274`\210=@\243\255\274\270\301\232=Y\010\014>\376:a;e\177\203\276\200F\343\275)\302B\276]\243\250\275\335\3716>~\233\357=2\252R=\247\375)>\300AM>\264\353R\276\341\310\377=\2264)\276]\002m\275KE\302\275\272:^\275jC\001\27615,\276\332<B=KW\200>\376\014\031\276z\243O=\030(\331;\372\230\226\275\0029Y>\374\326\036\275\237\313\254=\3444\213=H\000e=\306P\013\276\320y`\274\262?\377=\000\311\177\273\213\016$>\360\321\220=\300Pz>\244\202\214=R\273J\276<\231\t\2763\301\027=\004\202B>4\364w\275+#\360=\313\211\361\273\270\221\010\275\320\264\334\274\277\033\253=?\1776>\200\310\235<\213,\314=\000\235\247=\355\263\337=\246A\363\275\354S}\276\246|H\276\323\200H\276\326\227.\2769P/>\033\340e\275?\277F\2761<\251\275\201\254\017\276\000A\221\276\003\325{\275\265\3278\276\3245G>\036\003s>W\3578>T\356v<\265\216\221\275\263z\275=w\033\005\276m\201\332\275U\270b\276c\370\326\275z2\217\275\264\371X\276\314\331\"\2763e\023>\321hQ\276zo\030>i\321e=\266\314[\274{\351i=n\350\236\275\022\254<\275\311\331\355=\331\030\307\275\335?\255=\316\2076\276#\331\354=\364\272&>\200\237V\275\250(\257\274\2632\363\275\025y\314=\325\017\325=\002\205\017>\255\360o<\276@\350=\220\000\031\275\363\334\037\276;\360\256=\222P4>0\317\377<\210\371\226<\3443e\276\017D\030\276\254\224~=\210\215k;\223o9\276\316\274\n\276\020d\360\275\3518\353=#\247\010=\300\037K\276\333S\226\275\3325\213>\226\331\265\275*\367x>\034j\324\274\236(\251\275|\317\016\276\037\236\203=f\362M>\233c\004\276\243\325->b\301\301=\367\231\036\276\257\372/\276\302\202\030>d\r\032>\336\0205>h\241\236\275\246W8\276y,\031\2738M\025\275w\362\364\275\352\032Z\276u\372\265\275\364\256o=\333\005\376\275\334\375\224\275\306\227\014>\331\235q>\310xi=\276\036\360=#\263\231=\240\315\321;d\350\333\275\222\264\202\276\342\022\022> /\036>\310\316\363\274\002\311\004>\006\240\014>Y\n\034=I\014\207>\245\352i>Y\316>\276_\3437\276\261\377\355=2(@>\332\033\362\275\207\255)>\206R2\276N\036]=\345i[>\300N$>\274\203.\273\205iN\274\225>\252<\217\213\025\276tQ\264=\210\320C\275\361\300\">\233\025?>\3350\221\276\253\245\264=\202\237@>\255KC\2765Q\203=I\312I\276\260~Q>\026\330\310\275Y\005P>*\200I\275\356\nS;\342\271\220\275w7:\276\022\265)>s\322\313\275B\372\237\274\353\215\\>%\0325\276\266;\261\275\256\024*\276\343\003\034=\021\000\356=\013\240\272=\343\235N>)\350\213;\253kW\276)\371\353\275-\343\006>}\006\251\275S\344A\276Fo\">Q\007\267=\177(~\276\262Z6\275t\276\210>\336p\264=@&\213=\205\250|>\036\205\002\275;\347\374=\255\025\016\276\203\020=>\327\306\230\275{\210\020\275@<\317=\333\2752\276\201\367\253=\025y\r\276\322\212\366=\304\345\033>\374\243J>R\361\235\275\024L==G\234\237;<d\037=\032\304d\276OJ\356\274H\226`=(\235G\275\003\334)>-\357y\275\340\024\212<l\366\213\275{\234\033>\335\343\260\274\202G@\276B\003\207=\340\017O=M\212x\275 \364\214=\263q\253<\316\263Y>Di\236=\326h\006>\302,\263\274>\336\374\275\222\307,\276\302\230\201>\033\207@=\317}1>@s\035\276\360%\242\274\242\013#>\332\220>=\346\357Y\276\212\357X={\370\251\274\252\007p\276/}\027\276\026\310\333=\351\016\240\275\000p\312=56\253=\250\220J\276\245\021+=5^\006>\260\373!\276_tO\2757\261\006\276\300s\214\275\312e4>\037\203(\276\3368\036;\000\032\022>\340\217I\276\215\315\377\275KZ\236=8\251,\276C\r\354\2756\346\010>`\030\325\275\305c\014\276\2035_\276\225\007\361\272\257i\361\274e\271)>\320\315\000\275\343\354\226\275\261\331\021\276\240\344\362=qm\214\273.\365k=\334wN>\213\201\273\275\273\363\215\275i\207o=\022\306\203=V\306\227\275\377I\370=\253\2049>\212\352X\276\326\317#\276\256\003\341==\374\035\276\361\232\213=\361\300]<\2545n<\207dm\273\367\214\302=4/w>\302\371>\276\275\005\315=\345\313\245\2747n9\275\205?\001\275\237X\343\275\240\215-\275w\352\200>\224\253y>\323*\326:K\312\370\275P\267\030>R\004b>\327\017\024>\315<~>\026X\262\275\366\3167\276\010\240\227\274=\332\'\276\341e2\276W\337t=4\232~>C3\025=\310\320\002\276!\240\000>\336`#>\367\235V;\021\t\275\274\024\373\017=r\221\024>V\210\250\275\356\355\241\275\017\276\032>\036\007\350=\363\0304>{\265>>\314K\254<\202\311\374=\332\031\203\275b\203h\276\266g\222\275\355\366z\275\227\363F\2762\272<=\014\202\355=\202\355Q\274\356e\030\276C\233+\276\n\214\303=o\233c\276\267\2510>\314\273]=h\203\233\275\212%\252=\037^\023>2\215\364=\226\357\267\275Q\030O>o\005d>0\177\006\276\210Cv=\2310\302=\323\370\007\276\301>\"\276d^P=\023\325\r\276\353\235\223=Z\315[\276\222\024\204\274\322:\253\275(\210\354=?\317C>v\271S\276*\032\223\275\010\3417\276gts=\2460\202>\301\'\262=H\206M\275\000$S;P\013\021\276DS\005\276c\307\010\276\005\3462\276\212\333\370\275\304\206\305\275\240\261\271<\027\352>>\273Y\013\276\366`_>J\245\343=\224\272\\=\025\0272\276`\356+\276\037\025H\275\366\376\215=R\003%>\324f\213<\310q\010\275W\014->\037\004S=\346\024L>\267\200R<\2643U\276\250\311\323\2757\3551=0\003B>\311\334+>\266MQ\275\245NQ\276\014\271\024=8\231`\275\351\270\203=i\235H=\nm\230=\374\032\035=\244\375\014\275\320M\225\275\031\243x=\226\330s=q\275\036>\000\302\200\274\021.f\275\021d\026>\325#\327=\025\337E\276\2358m=\355\224\226=f\365\244\275\325\327\323=\240\036\016\2761F\340\275\327\247\320;N\275^\275\230Bb\276\374\332\367=M\223\205:\301\027\016\276a\330\014=AZ\367<A[J>\021\300h>;tS>\352:\345=l0r\276j\222@\276\321\266\253\275^\363(\276c\223K>\370\236\367=\377\321\225\2750\357/<(\t3>\316\370\366\275\260\315\266\275\2467{>\227\013?>\306\2446>\334\271\\>Da5\276\316t\031\276\0042\314<\2256\003>I\320\010=\321;\033\275:\0378\276\214\377T<\260zN:\254\034`=:\316\312<\3564\341=\255\340\022>\367z\223=a\232\001\275 \214c\275dh9\276\027\211c\275\214\2245>\244\0055<!\276 \276\257\023\320=\2730\010>\271\006\303\275\243\272\241=\266jN\273\262u\320=\346\244\033\276\262\267\222=\235e\254<K\016\036\276C\365L>\261\3002< \316\272<\355\262e>\302>\355=\335\002\006\276\276[k\276\034\370\213=\003\276Q\275U3\224=K\t\243\275\372\tM>h@K\275\365\222\005>N\313\250\275\322\2003\276\252k\202=\016v6\276h\364G>\017\360\020>\313\247\035\274\027\247\001\275#\271\\\276\231A\214\274\211\002\036>K7\315\275\252sH\275\\&%>\222\205d>\271tC>\n\256\365=\032)>\276\230\260\222\275\206\372\211\275O\247\027>\000G\367\272\204\270G=\000cO\272\336\320\264=\002\030\245=Tw\035=W\355\010>\3676B\276lP\354\2757\227B>\'6\312\275JD\225\275\35107>J\272\230=\374\336]\275\354\275w=\210\327 \276%\\\037>\261\351->\322z\317=\255\250\034>H\213K\275\326;\336=\341gG\2768\203\000\275N\351\362=\366\311\343=\023\261\341\275\340\033\210\274\361X\036>j7\354=\356G\336\2758F\337\274z\202\254\275\260\364\364<\220\341@\276r\236\301=-\311\026>\335e:\276\331(\t>\3005&\274\346*\211=\254D\366\275]/P\276V\\\276=$GK\275\224\2505=P\017\372<.\300\230=\030F\002\276\220\363.\274b\2355\276\006U\324=\200H\t\275\364\004\034\276l:\032\276s\206T>\304\317w\275{C0\276\340\340\234\275\273\300\000\275\312\033\203>9\2151>(\356\315:_]\201\275\327T\022>\310\360\031\276\330*A>\326\371\203\275X\203D=\340\001\344<L\217Y\276\032\210\032\276\333\261\302\275Yw\\\275\030\022:\276O\371\225\274\261\254\334\275P\376\256\274\266^}>b\370\355\275\\]\023>\355\370:\276\200]\266<S\"Y\276\274\321\230=\275\323\217\275\361\366\031\275\356*\335\275\335}\216\274\001\023\033\276eY\265=\251\322a=*C\306=\377\037O>5\255\036>S\230)=,2\'\275Z\335\250=\000\014\212>0\236O=\324\262\037=\361\333\373=\033\320\361=o\276\025\276\304\005\013>\207\210&>\323\013\277\275\022\257\220<\003ZK=\331\252\335==s8=\226\221\'>\354\313\"\276l}3\276n\177R>p\202#\276\356\333\215>\360>\177<\255\354\022\275E\357P>D\000\030\276]\320f>\307h\031>\r\177u\275\206\363\243>\222\266B\275`\343\342=\207\317e>\354^o\275\351\'\016\276I`\024\275\214\305{\275R7\201\275\226\236\375=(8\006\275\350\342k>\332\256\316=I9l=\024\\\'=\210x4\276HVK>\374\221\016\2754\306\237\275-\320\014=,\272\246=\021\375\341\275\3765>>\312X\010\276Y\3566>\243\270\224<\203\277\200\276\037\036\035>\274\360\276\275\233\2613>\3565\007=\226\242\030\275\326z\264<\210\276\022=\246\022=\276\002\250\004\276\001s\t>4\377\343=C\233N>\345Hu>\236\247}>\374\211\034\276c\022D>\222\363\201=\374\330T<h@V=\353\301\246=\021\2546>\260.\310=\251\355V\276b9\006\2766\214\374\274<H\311=\307j\036\276l\007\031>_\330\232\275\177\230\256=\254\345#\276\316B1>\203\267\205\275\270\353\250\274\345\345\034\274\000\206\306\272\340h5\275P\311\366<\026\"\325=\306\351\367=\204X\212\275.\355B\276\252\2109\276\3648\004\276#\337T>l\345\202\275^=\350=\210$$\275\300\363\224\274\320\241\346\274s6\275\275/6>>>R\205=\273\270(>\032\'\023\276\220\202m\274\311\222\025\276b\006\263=,\361\026\276\3706!\276\350\244\236\274\3706H\276hqY\275\372^\204\275\336TG\276\316\206\021\276/\357G>\300\223\217<\017z>>\200\020\034\276\005\302\004>{\336,\276\2748:\276\247\021F\276\311\222\365\275v\317\316\275;\223C>\310\026\350\275\037E\007>\257\201N>\354\264F\275\031\036H\276lK:\276\332E\014\276 \335\241\273\366\366\343\275Sp#\276\272F\242\275\000oi<\355\020J>\232Q[\276\000\240\3647\3500\261\274l\232U=4|Y\276\203\323\031>\3341\002=n\325\253=\000R\236<\222\377\201=g\210\251\274ph\357\274\374D\014\276\363\2216\274\333\341\355:aG\351\275\013$5>0\262\254\275F\330:>\177\304\252\275j\'\210<XE\271\275**\243\275/u\252=\241*.=2\305\266=6jJ\276/\004E\276\005\0310\276\005<\207\276\254i.;\252uR\275\222S\031\276\221\316\223;\224\332\207\275\300\325{<D\322q\276\003@\264\275\254\272M=\304\344,>Hr\230\275\377\277\250\275[\221i\276u*\216=\263\232\006\276X-\031\276N\255\250\275\nJ\223=:\035\362=\327\215\216\275Q\030T=\260/6\275\225\271\216\275F\332\325\273M.\232=lo\202<\352\233\275\275l\033S>\241V\376=\257\212\265\275\377\371\334\2753\230\253\275kp\324\275\376\311Z\274D\006\270\272?\310!=\327\226X>8\030\340=\320\\\256\275\2007\314=\035pU>I>\021>\000J\202>v\350\242=\362d\">\336\034\316=ID\022\276\016\351\"\276\213\366\006\276\234:u=Q\216\272=\245\256\321<3\025\274<\304\356I\2764\354\251<\334Q\223\275\235\257\275\272\n\224\004\275ET\352\273i\211o>\377\035\357<vm*\276\343,;>}\323\002\276\211*\271=\220U\204=\270\010,\276Jx\t\275r\317\352={^\364=\201\216\334<\335\334\001>\344\231j\275\"f\333=\364\357\250=\254\265\001>\000D\\>\341\302\320<\333Z8>\273\241\361\275\346\341\257\275\213\\1>+\254\016\2761\235X\274W\250\033>&\316\261=\001_+\276\227Js=q\306\200=J4\033\276\203\260\334=8NT=\'+J>\374\304\002\276\357&\024\276\t\310\246\275\002S1\276\311\3609>\230\363c>\235\\\302\275\317\035R>\273\250\032=^\025\\\276\000\340d=\322\3409>1A\004>\205#\227\275\020\361\025\274\232\264\301=\034?5\274\247\361I\275\010\214\370:\336$\212=o\r\022\274\341\332\027>u6\267\273\263W;>\332\263X=\021\203e>\007\020\367\275\205\2738\276\013)\036\275\306\240\376\275\0370->8v\260\275\306\276\013>\\5\023=\007\214\325=*\235\003>_\255/>\365\016C\276q%s>\220\211#\276\332\315\002=J\311Z\275+,\235;\3449\032>{m\274\275)f\301=\311\376\200>9\261\260=4\275R=\357L^>\205F\333\275\022$E\276fM\305=:j6>\237\205\251\274\3241\254=\205Gf>\201K\346\273\035\206\275=rbC\276\301\267\r\276v\354\355=g@\203=S\353U\275\246aO>\202\3616\275u\265\353=Ny\030>A\224=>?\363\304\275\217\370J\275\266.\221\275\233U\377\275.\205\355=c\2045\276]\356\001>q\271\021=\300\207\360\274\364\366T=?<\344<\007\307A>\362yR=\253\203G\275\223m\037>\'\234\004=v27=e\304\233\275\336-\250=F\317\256<\336|\000>\n\315\320=sX\257\275\rW\013>\200\306(=\236\'i>\214kL\276\260\272K\276\027[N\276\202;&\276\322\211\207=\345\273\336=\3774<>\320\027\017\275\316\330#\276L7\000>nt]\2763\235\270\273\322\025\231=I%U>w\330\212>;\366x\276\324\310o\276\211C!\274\306\333b>\177\252J>\030\212G>LH*\276[\031\032>\343\025\305;\373\337\250\275\005\314]\276\037\345\374=\374\263?\274\025{\n\275\345\226S\2761K\321=9q\210>\023\351\374=\273\266z\275T\r\031\276\270_\372=`\360\302<c\030\373\275\024=(>\304\322=>\003\367\215\275\246\201\237=d\327\220\275o\035B\276\336\376\360\275\206\212^=P{\202>O\337I>\343\221\311\275Xv\201>\200\355\223;t\217=\276\261C\006>\224Z\235\275}R\001<\301\331@>i\235\323=\270{\313\275U\037\r\276\030{\342\274^\265\010>\264\313{>\002\222Q>\t\332\007\276\320T,\275\246\356\023=\\o\247\275\257\375\343=\260\263\t\276\004a#\276\321S\376\275\256\357\341\275`\252\033\276\236 \"\276\310m\310=*\tI>9\313,\276\375\277\n=.=\255=\206\210\032\275\254\003 \275#F\263=\345\311R\276\316\252\210=\333\306`=\004$z\276$j\030\276\275Y\305\274\223\343\331\275\"2Q>\313=\026<\341\331F\276Je\316\275\254\363I=,\0222>Zcw=\004\345\343=\367%1\276\312\3072\276\332\246d=\266\017\232=\337\033&>UL\224\275\301\223\321\275\255\354\362=\324\206\005\276\002\014\000\276\310\260\036\276\\4\026>\217(e>\326\273%>\330\271(\276\274\200<>\3530\374=\310\032\033\275Fu\211=th\220\275\374|B=[\303\t>\306-\005\276\376\354\013=\255CZ>\216\373\354=\331q\034>H!K\276\267\272\232\273\325\306\250=\340]\276\275\212\201\206<~\223\374=\264\330\025\275\261\231\336\2759\3256\276\326\234\362<+\024F\276\263^\331\275\025\363J>\256\264\031\275Z\267%>\351b\356<V\016\232={\033\334=;\274\213>[x\000\276\374\230|\276i(8>\355{\237=\364\323\377\275$\361\204>X\3158>\000\306\244=H\306^\275\177=\032=\341\0008\276J,\000=\215\341\006\276-\356K<\371\2108\275S\353\000\276\3178\004=\004\324\331\275\224\217\034\276\374\350D\276\327\246%\276\204V\032=\"\353\022\276\331\262Z=\n\252\003>\231\010,>*V\371=\257\177T>D\245\266=\204\221\232\275Z\353\276=,zF>\342\006\340=\031\344\225<W\367\255=\"\017H>;\036\310<\034\000\237=\352\017\302=`Y)\276\304\031\313=\331\267\214\275->\343=G\240C\276 \260\t\274\375\n\275=\224\345\234\275 \2215\276\347J\215>\235\267&\276\322\2275>\2563\221\275\372\270}\276\331S\320\275\226\016\'\276\3728\207=|\317\236<\362\276\250=\325\277\364=\255J\006\276n\315\224>\3229;>\020o\321=*\254+>\037x\203\276@Q\020\276u\334\217=1\242f>i\350\276\275j\021\256\275\002\265\010\2767-S\276p\341\302=L~\034=\2238\030>/\262H>y\246p=\036\002\343\275\211\214\034\276\024\037\212\276P$\247=\325\253\271\275LI)\276\302;\372=d\203\250=\350n\004\276\213\311\216>\303w\010>\360\303\002\274^EC=0Je>\315x\362\275\003\312\211=\355\372\025\275@\251\273\275\027Lw=,\245O\275f\321\021>\210\200\371=\305\2355>W\326}<v\024,\275Z\0207\275[\246\324\275\2176\341=9\032\021\276\250je>#\316\332\274\223eA>\013\336\007>\337\t\224\2751\307`\276?6\030>X\2070\276\316<^\276H\324u\275\276t\201\276!\033\353\275x\353\343\275\232_5\276\223?>>\255:\352=\027\324f\276\243\344\276=5\016\335=\306-\260<d@=>M77>\235\024D=v:\263\275y{\204=\370\206\331\275\211n >`\360\032>\3075\230\274\332\363J\275\325T.\276t\227\271\275\277\270,\276\367P<>>s\354\275\337\311\307=\027\371\033\275\201\222\n\276R9]>\016\r\351=\224\272\001<\210F\302<-r\">\231p\326=\317\314w=\216\276\256;\232J3\275\314\001g>?\'\305\274\340\230[\276\217\022;\276\362\212j>\251\220*><\001\272=\216\324\001\276zV\023\276\361\323\250=g\3179>\336?{=/v\005\276\237YU>\0206\223<\001Y\006>mXr<\274p\023=W\200$>P\033\037\274#\3023\276\002\013\243\275F\331_\276y\243X=\234\000\361\273\343\207\243=1\256 >\256\277\021\275\237\367\211=!O\000>\300\032\226<\252\253\250=\"j\325\275\375Y\240=7a\n<\326\222n\275`\206\013<z?\031>\010\026\026=\2172\275\275\366\202\346\274\306j\355\275_\263\007>&\234\252=\306\007\360\275\335 R>\344\334H\276\033\347j\275_~\351\275\217\354(>\036\305<>\371\324\010=\307Pn\275\321\r\273\275j\234\">J4r\274\206\017\266=G\214\372\274\226|\014>fl(\276\332|\367=\r\223\020>\315\213\314\275\234\010h\275\304\210\004>[\342\271\274\036\2613\2767\251@\275\302(\336=\357:Y<\367^U>W_\030\276|\353(=T\n*>\006\367\"\276\330\014\n>T\214\375<\017\226\000\276P\317x\275/p\251\275\361M5>(\225>\276K\017V>\255K1>\352\207f=\264@\206<\271\0163>S3h>S4\345=\222]\232=\370S\331\274\314K>\274\311\306\021\276<\024:>\310o\315<\244\001\025>\273\264\336=t\376\021\276L\311\023\276R\351R=\211\225\333\273\024\214a\275M\271\006\274I>\360=\212s$>\002\230\335\274\371\002$>\377\304\t>\024_d>\322Z\362\275\023nO>\266Y\252=\241\203\324=.\360\024\275\200\267\202\275\007N\201=\3467\212\275\363\3268\275\002.\024>\3344\031>\340\315\002>-\034\250<\331\004\256=\225\032\000\276(\365\035>1\212\007=\270O\323;\255\260\206<\017\316\021>\343[\273<HF\251<EKD\275+\024!>\237a\222\274\022\227\200\275*\221\030\276\375\033)>\304\300B=n2\374=\300Uc\273N\264\367=]%\007>\346\243\271\275\244e!=^\3214\276L\025\033\276\237\0368\276\214\025s=\264\"d=\350\341/\276\314\0321\276Q\240\025\276u\335\001>@\016\315<U\2522\276\3469\202=h\256\221<xH\010\276\365+\022>\315\311E>\360\302\033\276s\217\004>\345\202\005>\225\244*>N\013\035\276\024\226I\275\371k1\276ND\376=\314\334t=\364\335\036=Yh\377\275r\002\236=\247\365\014>\350J\242\274\t5C>\346%\025\276\345t\013>\rX\302\275\266\034\361=\021\002=>\304\316D=L+d=,C\036=\000\030*:t\367n=Kz:>]\232V>\271\357\026>\224\3664=F\177\224=2b\250\275d\314\"=\320*\020\275\214\323\"\276\004\024\007\276\256\352\204=\257\204\316\275\025\332\017>\350\322\022\276"
      }
    }
  }
}
node {
  name: "dense_10/bias"
  op: "Const"
  attr {
    key: "dtype"
    value {
      type: DT_FLOAT
    }
  }
  attr {
    key: "value"
    value {
      tensor {
        dtype: DT_FLOAT
        tensor_shape {
          dim {
            size: 64
          }
        }
        tensor_content: "\000\000\000\000\363[\326;\215s\300=X\030\253\273\363w\225=\246\262\241<0Q\253\273\"\"\007\274\2675\241=\374\342 \275|\032><\335j\227=\000\000\000\000)\216\037=N\n\251;\217\nQ=Vu\253<\326\331&=L1\273=\000\000\000\000\212\350>=\3663\002\274\375\347\234=\000\000\000\000\240\303\203\274\3427\253\273\311,&=\211\003\231;:9\256<\200\325\250\273\273o9\274\323\026z=\023\022\216=\303^8=G\354b<\222f\003\274\000\000\000\000[\207\027\273.\204\275;M0C=m2\266=|\343R=\270\026?=\245\025\264\273\317?\232=c#0\274\367\2321=\242\371C=\236\205p\273etC\273\334h\237\274e+\373\273F}s\274\027n\366\2734\220\257\274\235\372\216<]\013`\274\350\036\352<\375\337\301=\000\000\000\000_\201\003\273\006!\254=>\355\335<m\177t;"
      }
    }
  }
}
node {
  name: "dense_10/MatMul/ReadVariableOp"
  op: "Identity"
  input: "dense_10/kernel"
  attr {
    key: "T"
    value {
      type: DT_FLOAT
    }
  }
}
node {
  name: "dense_10/MatMul"
  op: "MatMul"
  input: "dense_9/Relu"
  input: "dense_10/MatMul/ReadVariableOp"
  attr {
    key: "T"
    value {
      type: DT_FLOAT
    }
  }
  attr {
    key: "transpose_a"
    value {
      b: false
    }
  }
  attr {
    key: "transpose_b"
    value {
      b: false
    }
  }
}
node {
  name: "dense_10/BiasAdd/ReadVariableOp"
  op: "Identity"
  input: "dense_10/bias"
  attr {
    key: "T"
    value {
      type: DT_FLOAT
    }
  }
}
node {
  name: "dense_10/BiasAdd"
  op: "BiasAdd"
  input: "dense_10/MatMul"
  input: "dense_10/BiasAdd/ReadVariableOp"
  attr {
    key: "T"
    value {
      type: DT_FLOAT
    }
  }
  attr {
    key: "data_format"
    value {
      s: "NHWC"
    }
  }
}
node {
  name: "dense_10/Relu"
  op: "Relu"
  input: "dense_10/BiasAdd"
  attr {
    key: "T"
    value {
      type: DT_FLOAT
    }
  }
}
node {
  name: "dense_11/kernel"
  op: "Const"
  attr {
    key: "dtype"
    value {
      type: DT_FLOAT
    }
  }
  attr {
    key: "value"
    value {
      tensor {
        dtype: DT_FLOAT
        tensor_shape {
          dim {
            size: 64
          }
          dim {
            size: 64
          }
        }
        tensor_content: "`\311\035<\371\033S>\313@\000>\337\231$\27616L>D\007\302\275d\010M\276}\"\021>\303\250D\276\364\2779=>4\244=\334\006L=9s3>]\3269>\214\272(=\356\004\242\275\324.3=\336\271(\276\034\333-=\364:3=\242-9\276\240\224\231;\366\274\340\275\312\230\201=\021\317\352\275#\267Q>\371g2>\240g\342;k\236@\276hX\353<2\230\356=\255\361U>*z\315=\367\244R\276\244\272\177=\366G\321=\017\206\004>\207?*\276^\016\212=\330\032\363<\014J\002\276T\355c\275\371\017\003>\235T=>e\n$>*G\362=5V+>\323\276H>\277\270&>\001\322*>\337\377W\276\314H-\2762\\,\276%3\353\275\"\035R\276:\266\262=\243\234*\276\277i\375\275\000\006\227;ob\002>_I\017\276\276\177\364\275\370\316\255<L\264!=j\007\321=jxa>\332;.\276\021\303\317\274\005\323\353=\211\234H<\275B\300\275\356\371u;\276\274\206=A\350D>\300o\t\276\004\2403=c\364,\273=\\V\276\267cg>b\206\221<\017\313\251\2753\327\r\275\326P\211\275).\305=L\237\035\276\221\344L=;?\000>\276\353\002\276\376\2757\276,\331\005>\023D%>\3100\302=\312o\325\273\371@K>\211\363|=<\000\002>\3218\037\275\216\200\"=a>9\276.\3158=\374\335\021\275t\035Z>L \272\271\n\031E\276\256|\364\274E\313\031>\245\264\231<b\330a\275@\230\177\275H\236.>\n\010O\276;\307\232\275\221\246\362=\374*\034=\200\003\273=\346\020\225=6JR\275\372\234\347\275V\021o=\232\243\214=\013\003\221<\3241\037\276\246\303\262\275u\276z=\341\352\313\274\342\240\273=\340f\273\274\214\312\261=\274F\317=\260\3572\275\375\331\222\275\r\303\\=\354\270\330=^X\340\274\217Bn>\243\300L\274\026\032\016\276\007\333)>\262\322=>\314\360|<\200\316\334=\364O[=\355C\302\275,\023\311=\254\303\313\275G\003\006\275\2028\266=x\"\'\275\206\375\214>|\323\245<\304{f;.\274\037\276\250v\235<\314Y\007\276\202+\200>tf\023>\000\240B>i\017\'\276C\275\251=\310\274\020\273\306X\333=J\005\264\275\026\004?>o\243R>.\363\337\275\305 &>)\000\033>\346R\013>\027-8\276\266N2\2766\036\312\2751\023\210=q\276\344=)\254Q>\321\361\030\275S\222m>y3\347\275\031\300\024\276\351\263\265\275\034\013\\=\213\325\200>c\021\001>-\n\264\275\245\021\030>\024\004\025>\225\2658\276\302\227\250=\014Ru>>p[\275V\000[\276\274H$=\240|\017>\242A\213=\233Sd<&\330\256=\240\331\273\274\212W\223=\3274@>ZV\341=\214\nA\276\010\340\331\274\333G]\276\316\237\322\275,\014M\276\211\0359>0\256\321\274=\224\024>\361Z\224\275>\333C\276w\302\265=X\376\302<\263\247\t>\233\303\240\275\374\373\000\275\305\212\200=\366\233\215\275\024\263L= \376@<\216\r\342=\247\332\014>\030\202\017\275\2668\r\276R\366\005\276\246$\231=HB$\275H\204\206\275tO\250=}\244\020>Y\032\026>\031P5\276\001\247:\276d\302?=\200\370\266\274\002\004\225=r\255\035\276\026I\250=\312\027L>\036\252\370=\242\252\324\275\221:F\275\217 6>d\016i\275_\370C\276\034\021\000\276\026A\264=\320zj\274\341b\021>\370\305\261<jCR\276\372\000\300\275\353`4>\014\n}= \005\215<g\266\030\276\340:\270<\202\270\346=\362+\272\275\300`\217<_fM\276\376\242\251<\021\021\">\352@\377<\017<l\276\340\n\265\274\261\311\031>\'\303?>\304P\221\275\'\205\244>\027\371j\275\346\1775\276\300\253i>\345Q\346=\014\212e\275\014!\254\275}\207\001>\306\216B=\253}a=\273(\025\276\255\260>>q&\226=\004\370-=\r^O\274\037p\033\275\362\207\373\273r\347\034=\363\\\331\274lS\231\275\345\315\234>\000v\234>\370\324\206\275\332\362\213\273\277\301\360=\006\014\"\276\234A}\276\324\345\230>`\333\037=\240\033\203;r\016\255=\267*T=\203 Q>\3175\032>sW\250=r\254$>Fh\020>\317\033\210\275\374D\035=\337\216\206>\321\200\023>\327\026\006>G\3226\275\206\004\266\275\030\316\317<\252\215\207=\330\306\274\275\300hQ;\201\202U>\363\2138>~\3145>\366\374O\276\254\033\\\276\274\277\025\276\3047\337\273\214\267E>\201\001\017>\022\3547>\232\200\260=_p\245=\363w\006>\2117\031>\312@\376\275\334^N>\377\321S\2753\306\251<z;)\276S\344B>\366\323\026>xs\222<S\327\022\275\300%2\2735&E>\251\264I\273\3352\363=\016\310a=L\233\032\276@\000\260\2739*\'>\207\313\307:\214\351\024= \007H>\251e\321<,\336A>\032\317\035=\247\220\217\274\235\347\030>p\n.=\n\224\241\274\320\330+< \005U>7\330\037><K\013>=\304\254=V\265Y\276\016\213\367\275\217\023H>\312\373\320=\t\223G>\233\317^\276\324@\021\2766)\006>\220\267\340\274RD&>\177(:>\010G\310\275{\267d=\3143}>\210\265\255<\035S\311=\260\025\236\275\"E\227=\220\306\177>0\216\014>=\007\231\275\235\030+\276\376\2733>\243YR>\003\0070\276jg\323\275+b\2269\237\313\251\275}\234\023>nF\253=\372\373\227\275\017\247 \276\251\024R>\343\027\'\275\205\300\312=\\K\036\276T\377\034=L:V=\306\037Q>\300\264\366\274\025N\311\273`\335\267\273\033\306\n>\2309A\276\360\277\250\274C\376\243\275\367Y\032>`\273f\275\212\224\216=@\311[\274Z\276\320\275.L\301=\2273\247=\032\365\357\2758\025\034\275\214\210\016>v\016\325=8@\255\275\340m8\276\200F]<\237k\221=\017v\r>\300[w<Vx\244=\344\032o=#R\344\275\321\023\235\275\225N\024>yL\013>\013\262/>\024h\013\276`\347\257<J^\323=\360-\301<\034=P\275Lt\363\275\260S\355\275\033\221G\275\245E?>V\342\000\276\257\345O>\334gf\275b\212`=\214\357F\2755_\t\276|\275Z\276\230\377M=\3061\r\276\270\262\010\276;7\033>jo\203=\304\245(\275\371\361\234=\273\227\302\275<\231\306=Rt\321=4+5\276[YE>?\220B\276\227AB\276\345\266\\\276\224\264\031\276\337Z\304\274(\361\340<\321\353]\276\340\025\033\274YF\302\275L\310*\276.\365\230\275\032\0224\276\300\'\264;Ef\307\275ZqC\275W\275G=\350\322\302=}\022\035\276\305\311P=_t\273=j\324\346\275\350\344\000>L\300G\276\244Z\004\275f\234\244=\230\207\266\275>P\271=\246HX>k\321\211=\253\271U>\266\237\253\275\337\367\342\275\021C>>n\237\036\276K\2648\276.\002E\276\310\000C\275 \001\277;\232\3332\276-/3>&\307\313\275\360Vb\274(0\346\274:~\306=\177`@>s\'1=A\346E>\265\342\t\276\252\366L>p\322:\2761\022\'=a\303G>\371\rL\276\316\003c=pP\346\275\312i\266\2756\0244\276\t*\001>\302\007\t=\014Ft\273\274\302l<\206\021\253=\010\r}\275\326\272+>\021\270W\275b\313f\275!1\035\276\233\333\321\275F\227\031\276\371\203\247\275\375rk>\023\243>>JQ\201=\203(\377=)\205\205\274\346\335D=s\222\026\276\005\224:\276\256\2330\275\223n\274\275|\233 \276\273\316\315=6\216\374=\206\323f>\360g?>\312\337\007>`\030\000=\364vT>S\rr\273\250\361\244\274A\304\201\275\256\274\213>!\201\014\276\244\241\270\275\367\203>>\270\264V=\301Z\234>9\3722\2765\346\020>\327\264U\276h?=>\317\366#\276\241\306B\276\225\2433\276\252\335!\276\252\236J>\271c,\276\230C\030\275\213\216\327\275\030\216\005>/AR\276S\337\026\276\"(\202==f\205\275\372<\031>\300\277\217\275\267\230\206=*_\003>\217\033\247\2759.\025\276O9V>8\267\236=\323<\026>\260\2721<_\034\337<\214Kx=T\031X\275\rC!\274\247\204\244=g\205?>\000oE<\037\312\337\275\014S==\033\377\200\275+h\201\273\024\217\232\275z\021\024\276/al\275\007E\202=\363i[>0\304\017>Ne\274\275\270DX>D\243\273\274\367\321@\275\322\022\305\274\202\210\321<,`D\276VL\016\276\251\301\034\276c\201\312=\363\373l\275\234p\362\275\227P?\276\207x\033<\031`\244\275\022\2228\276\332\230\345\275\277\304\350\275\267}\023\275P@5=\235y\237\275\033\247\016\274\357\013\327=\344\3515\276\031\003\252=\004\270B\276\337\3467>\302\330\326\275\255BY>\3361L\275\347E\213\2756\025\351=\244\354u=\2742K\276\026\360\207=LFA\276\210D;\275\373\n\021>,$\000\275r\243O>n\257|>5\255\r\275\014\002\214>\276\023\004\273R|j\275J\230\240\275\0059\007\276\205B.>v[\233={rM>\267M\203><;\004\276\227\221R\275_<D>Q\257\273\275\024r\037\276\335\177+>\345\ne\275\001\257\317\2757[\335=\337$\030\2761k\211\275\r\344\325\275(\306v>\265\346\037>\221\207A>\236H<>\343\220C\276\313\375\r>\245Yj>\236\031\266=\014k)\276{\032\272<\2129\337\275\002\033u>\010\376\335\275\326\345\333=\236\036i>2.g>\333X\005\276\344E\276\275\t\363[\276E\365,>v\263\243=\351\333H\276m\213\264=G\260\261\275\340[z\276\310\263\020\276Tf\032=\006\336\223=`V\031\276\256\265\034\276\256(%>k\330N=\204\360\367\275\363\221\033>[\311\n>\206\314\250=ZU\025\276\223\3462\275\2035\017\276}\2376\276W\277B\274\023\306E\276\332\271X>\205?;\276\251\2724>\253\343,>\026\311V\275\307>\230=y\343+\275\301\300#>\033\324Y\276\343\264\033>\322\375\263=\263x\260\275h\357>\276\223+\256\275\300M6>\272\033\272=a\222&<\t\215\343\275\340\206$\275\013\242>>\337\327\016\276D\020\005>-V\222\274\n_\215=\210\252\223=\316\034\003\276\275Ez>\233\021/\276\350\376%\276p\026*=&8d>\344\004\232=H\216J=9:_=\"\375P\275\000\20077\314V\317=;\261\350<mD\376=\315\340\237=\224Z\033=\344\305Z=\025\375\255>\323\014\256\274J\272\273;/:\004\276$S\245<\033\263\t>\024Z\005\275\002\237\177=\254\2424\276\006\3110>/\211\222=\342\031\242=e0\032\276K\340\215=aZ]>\270\247\340\275\235I\200>\274\273W<\372\r^\276\262\257\254=\373\025E\276\363/\032>\314\216|=\013\345/>\224\213;=\336^\371=z\013\344=\205L:\276\307\034\035>\327\335\t>l/%=(u\264<<\200G=hV\214\274\243H\t>\216f\205=k\264\027>\177\253\004>&\024\354=\364f\022\276\004\032*=\322\355\346=_\375\364\275k\205\304\275\035\316\002>|\0014=!3I><_\014\276\2675\003>\344\013\r=$\206+\275\235\231\315\275@\231\256;\345\317\035>\0103\004=\357\334!>\020{\032<G\256;>\234]=\276\306c\200\275\355\236\016\276\300B\177\275:\246\234=\307QD>\200u\254;\036\364A\276\002\266\237=d\363A=-?\363\275C2\010>n@\256\275\264\342\350\275!\232@>\257\234\322\275n<\023\276Z\274\215=*\246\264=\321\2521>\370\261d\275hs\000\276\224(o=U\221\017>\206;\270=\017\306D>6J.\276\300>\236\274iE\261\274\375\300\253\275\t\232p\275\365\337\204=k\000V>\346\004\026<|\370\022>\021\234\362\275\007c\024\276\352\261\312=5B-\274\035no\274u=\\>v(\360=\227x\220<o\241\024\276\001\026\347\275D\206\246\275\204Q!\271T\241\226\275@\243\r\276I\276*\276\364\305_\276\340\323\221\274dg\240=\236\332Z>\207\237S<\352x\356\275#\037\237\275\212y\223<\353\t\235\275\203F\037>\006\205j=\347\310G\276P*\375\273\316\245Z\276\352=@\276\310E\257\275~\363e\275\014\244O=\014\270+=\014\322|>{\274\000>h\364\031\276\370\206~=\256;\363\274\366a\377=\251\365K=J\004\201\275\222\023\032>\361KH\276\322\2057=7\215k\275!*4\2761\320\377\275\354\352\347=\201\325E>\014L\\=:\233\331=\32157\276\204\0042>\022H\263\275I\347\t\2762hC>O\032\034=A\334\304\275\324\303\006>/\255\360\275\037\372X=\035P\031\276\0047Y\274RA\n\276\226\016\373=\222y\r>tB\021>\210\277O>@J,\274;\200\353\274D\215z\275\332=\215=\214\222\256\275\254\215Y\276|\237\037>\300\247/>\234\317\251<\344\013\233\275\033\001\177=\000\330%\272!\236\232\275\241\355\301\275/\227\217\27595\034>\361\177z>R\264a\275\250\001\275\275\324\320z\275\271\352O>r\264\305\274)\236D\275\223\3014>\014\260\020\276#\241\325\274\3706\355\275\0329\001\276\351/\311\275\236\262\257<-\303\212=\303\2265\276\007\327g>\313[:\272\3006\002>CJ\"\276\3005Y<\213\016\211\276cx7>\276\034\202\276\003aB>,\211z=c\303\'>9`!>\241<\003>z\033\r\276\346)\247\274|\265f>\355D\362=\260\013\333<qt\205>\273vI\276}\003&\276\247\350L>\256\303+\276G\210(<\340~\360;\254\304x\276bA\246<K\tG>F\034\203\275C\200\254\275l!\225\275\353O\364\275\200\2665\273\251\360\321=>\206\026>R\243\250\275\'\256l>\375u,\276<\243:\276\2231b=bA=>XLh>\271\215\016\276\334]1=\010\001\211\274e\244\376=\342\017\320=\202\0104>\332\024\240\274}\371\271=\210\210\365=\207xi=;@\241=6\215\'\276\361xh>D\3163\276\t\246\231\274&]\017=\\\"&>@\337\376\275\344\372Z\276zx.>|\233\264\275G\025\217=\212\277\245\275\003\332\016>\320\332t>\023\335$=\210\305?\276\3257\353=a\010\325\275\300\221.>\231C\\>\265xj\276\273\207\013\276\001`\333\275\237\251H>\232@\237=M\243(\275\243-N\275\023r\372<\322@$\276\261O\010>\226Hf\275\201\333\240=s-\017>\272\362\002\276\372\0303\275C\332I=uN#\275\214\245g\275\342\031\030\2762q\213=\334`Z>\225T5<\n|$>\356\022+\276\341c\223;\240\363\333\2753i\002>\257:\251\275\274rq=<\215\001>@A\037\275\2017\027\274\252k\013>+\2733>\300\216<<\341\353.\276\214&|=H\200\324=(\366\006>\037R\004>\221\213L\275g\365U<\026m2>\217\001\263\275|\267\232\275\355\206\215<P\211\227\275n^:>n\334|>\242\355\204\275K5\334=\354HP=o\232\203>\2245}=\271\302?\276\344\010Y\275\'?\031>\316\004\024\276\337\004\'=\200\355\322;\372\031\031\276\335-H>4\2712>4\263\021\276\373\276~>Cq!\276\036m\"=2/\320=B\224\306\275\370\230\247=f\240X>\220\240\377=og5\276\0276\317=\346G\220=\332%\301=u\263/\275\0326\203\276\355f\026>\344\221\245\275sC\013\2764c&>\014\006!=\"\0137\276\214\360k\276\275\r\\\275%\265e\276\212\342\226=~\241\201\276\352Dk\275\177\272y\273`\263\362=:\242I\276O5\'\276\342;\274\275\034\233c\275\232s\t\276\303\262!>5s\327\275>QB\275Oq\323=1vO>\014~\213\276\237\256\006\274\272\337\340\275\n\202\016>S\200A\275\017\376s=\271aO\275\312\313\266\275\232\307\210\275$\323$=\273J\000\276\306\273\034\276\266\327\036=\273+Y\276Y\267X=6\373$>\237\0362>\363\341\177\276o\325\277\275(\375\217>\362\367\200\276KtR\276\210\3461>uE2>1x\014>\303\'w\275\365\257S\275\335\004H>\267y\331\275\264\264\202\275V\277\263\275\023O\313\275\202\326f<|\274!\275\322N\236\275\300\276\371=\017\216w=\231\3418<\321\305\254<\225\246\"\276\030\031Z>}\n\243\275\224.\362=g\257F\276xW\020\275\264\274P=\327\341\005>C]\345\275r\035\344\275<h\026=\32591>bRg\276\302\\\313<W\363\014> \257 \276l\224O\276\023\364\204>\372h;>\242\374\332\275<u>\276\354]\004\276\253\256\206=\372L\034\275\007}0>\270\214\374=j\205g\276\334r\352\274Mp0>[k\211=z(D=\274\263\032>\213Bu\276\226\205\275=\035\302\034\275\'p>>k\372\201=j\035\337;\343qM>y[<\275Z \206>\306\272\030\274\031>.=\266\304|=\247\'\207>\r\206\033\275\033\316\276\275U>\030>c\3745>\307\220\234\275\264\034e\276\177F\357=\021\263\305\275\0345\033\276\3002g\274\330\037\377\274\352\032\257\275;E\035\2759\322\364=4M\020\276\345\317\206\275@R\000\276\277\344N\276\231I\036\276\274\347E\275\316\304\350=\031h&>0\014Y\276\000\247\031\272[\177\001>\\L\007\275\355d\005>\000\365\345:M\032#>$\302\001=+\263 >2\005\214\275\335B+>VY\332=\303\244O>@\355=\274\203\210\303\275\271_\361\275 \265\215\275m!C>\347)\">`C\204;\340\004\241<m\330+\276-\321\n>\025\243:>\241\256=>\245\2044\2766\254\366=0e\307\275\251\305$>\350\'\210<\324P\000=\207\227R>\030\013\005\275f\237\001\276\332@\326=\255XW>n\034\247=\\\3627\276\214`o\275\250_\024\275\220s\231\274}\225M>\316\r\234=S\2624>\243\234L>\007\373,>\360\034\273\274\222!\334\275\244\201g\275\236W\026\276\314Xk\275@\317a\275\267u\357\275p-\026\274\032\263\215=\340\252\252\274\005-\024>\360\264-\275\364_\303\275\rB\026\276&:\014>K\272\335<\263k=>&\210\360\275\265\307B\276\320\315\021>\000\377L\276P&\342\275qn5\275{{\320=\210\321\363\275\220C\016\276\306\032t\276\220\251\371=\334\344$=\022:]\275x\007\004\276\224:\214\274\022\014\232>1\th>n\013\365=\336\207\001\276\336\227\310\275\204\325*<\367\3601\274\227\353g>\341\233\276\275\035\253\333\275~-\203=\020\267j\275\231\237\201>?F\022>\365=-\276\322\200\000>b\213\314=\367\034\311\275>U\231=\271\254\027\276:\262!>\010\261\030\276\236\030g<\324\343a=\364v^=\023gx\276\272\303\037>\370\302\276\273>\361\030>/\251\003>n\345\203>\246Y\302=2\315J>\265\254E\276$\'\\\276Q?\t>\305!\241\275Lj;=\214 B=\362xS>\332E\250\275\355\005n<%y\343\275\222\311\037\276*\020@\276\217\245\037=\003o.<\274X\032=\357\235C=\343\200\031>\000\013E\276\232/\304=\340S\212<q\000\314\275\216\336#>\336\315\342=KT\256=\375\210\027>\024\005\331<\261\372F>\214\226\035=\223\363\027>\326z%\276\232\307d=j)?\276(42\2758\337\226=\270\000n\274~%\016\276OJ\010>E\203p\275$9@>\207<\254<\357\217I\276\265\3330\276R0\227=\252;\275\275\250\214L\275x\355h\2752\326U\276\326\003\207=\"H\235=!\037\315<\212\267\240\275,%o=$\240W=\210\2050\276\237\305\021>\355\2272>\005z\032\276U\370:\275<\373\270=\351\3366\276\323\214\n>\375Q\017>\334v^\275l\206n\275\214\332\'=c-U\276p\257\323<@].>D<&=t\333t\275\224\250\355\275C\300j=i!\303\275\205T$>\240\033\313\274\322\320,\274<U\201\275\226\216.\275\006,z\274\026\366\331=Z\005\344\275\233CR>\375\302R>`\"\330\273O=L\276\017\317\265=u}\242>\206H->8\334\230<w\261\023\276N\371\354\275\033\324:\276\351\340\017>l\301 \275J\224\361=\257\023\257=\370\361,<)\314g<X\251\177<\n\343\237=V\320\365=\330\222$>\272g\272<\3249\201<\364\305\340\275\253n&\275A\000\316\275k\346*>\370\254\212\275\017W\365\274wB\223=i\3035>\021:\036>n&\271=\355!`=\024vU=\2226\357=\344\306c>\2441Z\275Z5\226=O\006\271\275\037\253Q>\201\350\025>\177\003\254=\340\275\235\273\211\235\204>\\\357B=\212\244\266\2750\217s=$dN;PC\'\274a\3531>\014!`=\023\202\020>\rN\204>\365\302\333=\237\234\007\275\230V\270\274n0z\275\360\372w\2749\353\005>\2230 >F\032\010\276\332u\356=BC\315=\207\265\\>pR#<`\263\263\274\256o\310=\177\205\003>\037\272S>d\254\'\275yET>\327UB>\256|\306=\226\306\342=<o\005\276\206\022\224=\020\031\002\276\223\353\034>}\027L\276\325\n?>\250]\261\275\277n0>\363\360\025>ZP\225=\340v\346\273\237\205\360\275\367\264\027>\206\311\253\275\014\240^\275\211}\371\275$\2573=\023\227\032\276\346\323\276\275\326\244\270=)\372O\276\032\216\227\275\005:\030>2\373\304\275I\277U\276\343.W>\340\262\320;\314\035\234\275\210\352\307\274n\347\302\275\020\346\013\276\270\312\003=\323=\026>\242\326\223=\300\260\202;4\264\035=q\341E>\254\203%\276\202J\007\276\330.W\275hC#\275\244\277\r=\000\341r\275C\275<>kS\375\275AV>\276c\313<>\241\022\010\275?\265\315=v\251h>\352\316f>\314\220w\276\315\020<\276\275\200\205>\223;\357<(jO\276x\204\267<\327\222\274\275\227\021V\276P?\366\275\354\r.\275\205\364r=\316\273\032=@ke\274W\235s<\370O\001\276\0179\221>3\003\277=\177.\n>\332\226\361=\3516~<\010\323\020\2765\333\307=\237R:>\246\247q\276E\036\257=\365\3723>~\200\332;]O\230=\374\346V\276\322\001\357=/^\351=\240^-\276\304\244m=}\312\200>$\372\021>\342}\273<\303Wk<\240P\234\275\243L\204\275\032$\216>\230\376M>\2625\211>\353\002\235\275\371E\332\275!5\345\274XQ\330\274\023\023\323\275$z\263\275\354\331!>\207\301\206\274\306T\264\275O\027\020\276\2140\013\276\363\362\300\275\373\001M>\275\353\315\274\240\033A>:\302<>s\301\034>E\032\316=\272\313\253=\246\257\n\275\224\003\037\275 \363\017\275m\331\363\275\327\035&>\335]\010>\224\"\037=\250\356\021\276T\271\356\275+\010\032\276\304m\277\274\317\302\326\275\266\271\266=\251\267\006>\266\346\003=\200\001\\\276\373\235\213\275\327%\352\275Y\\\025>->C>^\373\234\275\205\211\346=\221\223X>x\222\303\275\315\377\344\275\213\310\017>\251\257h:\244\256K=\242\213\026\276\352\017\341=<HZ=\231\231\264\274\033i\r\276\002\373\017\276O\017;>\0369\363=\340\314e<\201%\235;0\253\201\274\275WL>\212FB\276i\342\341\275\315\014\302\275bM.=gj$\276 LG\276*_[\276\376\256\341=\007\'+>\225\023?\276\250sW\276[\344\312\275\364\230[\275D\276\036\275\254\372m=\264\330i=\024\266r\275@c\274\275&MQ>\336\277\304=_ \347\275\'o\352\275\222\230?>(3L\275\202T*\276f\310t\276\316\326}\275\303\203\216=M\362D\275h\370\337\275\3616,\276\2462\330=\3342\213\275\274z\023\276.d\006<m5\223<\322\0242\276\\\346j\276\234d\n>\357\030\201\274\355%\253=\306\323\303\275(\371\357\275,\340\222>\356\007\030\2768\304z\275\3007\255=\3561\352=\264\345\t\276\260V\335\275\r\222\030>b\001R\275\361\352\">\232\300\366\275\203\370x<D\234\222\274\375\201\342=a\001\311\274n\364\363\275\244eH\276\3527\236\275\307\212\213>\332o\247\274\341\300W\276\3266\000\276U!\320\275\017@$=G\276\262=\362\031\311\275\333\211\"\276\373\244\033>:\035>\276\326\027\215\275@?x>C\250*\276pA\313;t\212/>X\014\261=\265Q\347\275\016\250\372<\344N\t\275\361LJ\276\370Q.<\247|\037>\351\256\037<\311\020Q>(\252@>G\177\013\276\2211\034\275\027\2757\276\256\374\361\275\376M\235\275\337\206\005\276O-$>5\035\310\2757g\013>J\341\216=\007\365F\276\346\374N>\200C=\276\213\305L>\276\361\207\274FV{\275\347\206\016>\355+\t>82\226\274\351\204\357=T\0056\275\\E\204>\373\246P\275$\265\010=\273\276\357\275\360h]\275\033\017\331\274\341\264\370=]\016D=\314\024\236\275\275\371\261\275\256\236\'\276\211\312\034\276\210\006K\275Idm\275\212\0103\276\235\013K>\263\324q\276\353YB\275\225\224\366\275\225E\017\276\224\204F=\342\\\\\276\230\352\002\276\324.\023\2762m\034>\214\350\010>\277\370\337=\257S\264=\342\345\343=)\211\203>\222/\344=\355\024N\274,\021\031\275}a(\274:\016\216=q\330\227=|NM\275, v=}\341\342\273\307R\006\276\2316t;ua9>\003v\006\275I\005\356\274>\006\t\276Q\013s>8\0167\275\036V\201\272\036|n>3.T\276\333OS\276H3\260\275\207\262>>\327\273:\275\321sq\273\265\313q>\200:\264\272\002J\214>\363\r<>\374\371=>\371\300\036>e\2504\276d;\017\276\210+]\274\327\'O\275\333S\014\276\267\347\321\275\177=\035>I\214\212\275\030\217u>L(\215\275\177\230\177=\353\360\021\272\035\0020>\307\010.\276\202\035 \276\267\340@>`\1777<\'\341\207>\311\205\023>\373\314*=#6\004>S\2165>D\235F=\200V\264\273k+\373\275b\030\333\275M\310\005>\370\'\206>\377=\006\276\354)\261\275\251\200\222=/Y\021>\342t\200\276\336\353\227=1&\234=F\001\016\274\234\007\241=\025\361\r>\323\312n>\251\364\343\275\304\244\013=\026\307\005>C\270/\275\263\224\307\274\000\277\372\274\320\006\305=n\027\324=\261\216\237\272\010\303\373<\263\266\231\272K\217\312\275C\332Q>\335\304,>l\r+\276\320\001E\276\345*\033>k\2466=w\270Y>\334\270\177=\247a/>\273?\304\275\212\243\303\275\330!\361<\245;\364=\020DJ<\373\366\344\275\232\244I\276\337\210->\030$E\275`k\241<\346$\343=p:\r\276ds6\276\272\222\214\2758\220\307\275\267D4\276\000J\005=<)\037\276/O2\276\020\366\242<\024\334\026\276\300\347 \273\2236O>\\\310A=VF\006\276\010\022\274<\247\365J\276pE\036\274\021#>\276\240\226V>\303<H>\277\340\004\276\300X\375<\324\374Y>ky\317\275>\272\235\275\013\242\226\275\03393\276\300\373=\275\226\002\253\275\333\305\210\275hH\217\274\364@3=\336\265\246\275\221\305$\276oox\275\337\0378>$\0016=\020\335\305\2748\204\224\275j\206\303=\347ih>\363\036b>\214W\272=_PT\276\036\250\241\275<\260\251\275\'\255C\276\020^\233<\376F\017\276\373\344\311=\24123>t\331\206>V\300\315=\306\210\312=\n\342\'>\235\330O\276\377\014A=26\244\275\222\n\313\275\255\023\231\275\347\024m\276\307X\024>\023<\206=\253U.>\257\001\307\275\352r6;qe\\\275\331\226\212>\334JK>4U\371\275\366t9\276\026\331\007\276\250\250\353=\214ft>*\322J=XT\263\274xRh\275\347<\034>t\221\334\275\036\365?\276\256\257\360=\022\350\333\273\352\265\267=\356[m\276\332W\257\275\344%3\276\010\272\336\275\247\315\215=r\213\314=\2366\204\276,\2449\275\300DX\276\240\356\270\275\325\341&\275`\357\306\274\227\341\205\2730\030\007\275o\344F\276\203\3166\276E\260X\276\033Wx\274<\251<\276Q`N>\037\2145>\357\010R\273\327R\204=\344\264\213<J\214l\275Z\365\275=\330\274\"\276\236\365\274\275hN\235\274\276P\205=\212\355\366\275a\033!<\216\0176>\000\021\347\274\364.\314\274V\006:\276y\205\000\276\325HU<\330\257f\275\200\325,\276j`S<Y68\275Y\327>\275\254&S\276\326\217\307=\352\362\260=~\345u>\267RH=\361\216\277\275>\363#\276#E\263\275\251=\316<\206\243\031=\025n\371=q%\215\275\270\025]>G0\307\275\3678Y>\363\306\204\275=^<\275\203RD\276\254{\037=\034\352f\275I\352\'>\374\230\">o\253\020<\321\340\033=^\325c=m\247\010>\340I\007=\341w!\274h\342\'\276\031\262\201=\225\351\343=\233\335\337\275\013\2519\276\026\340j>\2161\222\275@59;/\342\203=\370\2237\275e\245>\276\373\2174>\254\017`>H\210\271\275\250G^\275\013\366\037>\365k)>\3027=>\023\201\021>-$\252\273\310B\316\273@\330\330\273<LT=\253\017\'>pj\022>\335\315\016>\314-\016=\241\230-\276\362\363)\276s\r\372=]\213W>l*>\275$\2369=1\373\233>g\213b>\032\361\207>.u#\275\312.\246=\0212\344=x6\230<\265\322\001>c\341\321=\254\363\320\274\241\325\341<]\224\007\276\302\2274>,\232(\276\313\302\014>\240\t1\276`\177v<\336\315\n>+\233U=\3327\004>\340C7\276\344\3735\276R \331;a@K>\000\006,>+\025n\275\364\275/>\034\265t>7\377\024\276b\302\334=\014\037\022>rR\357=\\\033\273=\2122&>\210\253!\276R`\021\276\007\013<\273\034\370\276\275,\035\037\275#`J>\333\323\277<f\031\\\276\356PO\276\304\262\013\2759\216\372\275Aa\277\275\032\317=\276\013\235\360=\032p\216>#q-\276MFH\274\317r\'>\005\232\000>\010\220\274\274\264\304J\276\006Vu>k\031k\276\233\001\">\030z\273\274\026O\234\275\204\316!>\256\007;=_\307\365\275KV;\275\354\032\024>\340\005 \275\215E\214>Z|k\275\336\036\274=\336\343R\276r\236r=\025\261t=l~\021>\257\353\201=\270<\241\2750\317q>PT\201>*\313\341\275\200\0328=\374\256\003<i\220=>\3563@\275\2306\207>1\274*\276\221$\260=\000H\3418O\313z\276Z\361\001>si3\276\004\336\014\276_\267N>\020\'\202>\022\314%>\247\324Z\276\217\0037\274\277\002+\276v\371\230\275\341\334c\276#\355\246\275Xv2\2763D\320=\276\256\023\276\306;\333=\274\307~\271\276\2020>y\347\360=#KD>B\006\267\275\307X\264=\026\037T\275\204aJ>-\304K>\231\316\256\275\314\250\202=\31285=\240k\250\275\232m\023\276\000Cx\274\222\274\251\275\205\027?\276\000\374\270=J\001\207\275\005\024S\274\374\004D>\300o\007\275\344{)=\326C\203=\307\271\302<88?=\031\023\267\275 \334\244=\n\224%\275\307\357<>\207*{\275\306\304\002>\266\3014>t\264n\275\240t\353\275^1\255=\001\005\235=%\365\267<\025r6=\206bX<\033\257\200>T\257\010\275\266\2548\276l\014\006\276\024\275Z>\324\244\r\275\006\273\325\275\006\262\351=\240\366\373\275Z\2003\275 \376\035>\362V5\276\236`\003=s\027\023\276*\275\204=\344z\333=\335~N>\220\034+=/\275R\275\n\354\351=\'\235\\>\226\200\306=\024\227\023=\300\225\022\274v\321\273=\312\336\221<\201^\331\275\233\3011>\324\200\354=\240xN>\203\355\264<\360C\203=\033f\332\2755\211%\276Y\323\265;.j9>\260%\355\274\225\275X\276\261\330V>\200\372\204>\336[\217\274\3406D>\322\242\332=\311\200\365\2746\241\220\275\241\313\247\275Tw\004>\006;\350=\301\016\351\275k\337,>\277\2318>\230\341\341\275L\334w>\262\3261\276{\352%\274\312  >\325\0146\276\377\006j=\024)/\275x\321\244;\270\344\001>\360\202E\276sT\317=\216\002!\274\t7\035\276\254f\304\275Z\323%>\332Y\201\275\235L \275\323\234H>3\345\344\275\244\207F\275\335Fo>_\355\335=\037\266\302=\353n\314\275d\376\006\276EW+>`\217<\274\264\266\016\276P\2354<\217c\022\276X\202W>\027rp<\024\260F\276\365\342\031=8\264\303\275\325\005G>\273\305#>\272\207X\275\034Mm\276\005\023F>T\326\243\275\220\265@\275l\252}=\352\245\325\275\030\217\217\274\356\314\022\276\312f\315=\356x#\276s\277.\276`\300\274\275\260f\201\275i\256J>\351\317+>\324\376\005\275m\264Q>\017\375M\276\213\2563>\247\274S>\002u\233\275\255iS>\2720\222=|\234x=\320:Z\275 \221\000\2754AI\276\\\364n\275\217\213>>H\026\225\274\372y\217==\030\374\275\010\222\370<\226\274\023\276`DW\276\016\271\235\275\014\024F\276RZ\236\275\240\243\363\273t\225y\275\024\021,\275p\257l\274\242\240\325=`\232\341\274\022(\374=w\rM>\232\236\266=\004\270F=-\201\376\2750}\274\274\262\001\253=|\223\224\275AJ\022\276\337\025\034>\023u=>\2007j<(\301\322<@\340\207\274\036N\216\275\263wL\276c\247\315\2759\336A\276\201n\">\266`\330=\340\232o<\327t\003>\222v\205=)\367\237\275\022\352\327\274B$\362=t\316V>w-*;d\3738=A\367\260=\233\344\010>1\372\037\276%\210\337\275HL->\233\321=>\313{\227\275!\340I>\214\307&\274\214r\264\274\210\344\311\275E\353\371=\2408\342\274f\016g>;\037\207=\337\225\034\276\027\272\231\275\311\216\343\275P\"\240\275\343.]>3\256\'=\355\233\206\276\364J1=\013\316\004\276l\031N\274S|\001\275\331s\211\276\306\355\236\274\005\t=\276&J\251=j\336\311\275\004\371R=\372%\267=/%\204>\254\372\033\276[;\013>j)r\275h\220\377=\020\303\373=\243NE=\322\273\'=F\2749\276\226\303\177>\376\3773\276O#\267\275\027\022\t>\241\276t\275i\275}>X\033\201>\356\254\377=bO^=\373kL>\014R\017=\014\374\221\275\310y\000\276\314{\265\275`\027\215\275\364\020f>K-1>\202\216\375\275\2650\010=a\233\205=V\215\"\275!\236\326=\272\0054>G\376F>w\325F>\336\035\213=\226)\203=\273\337;>@p\"\276\362\314\232\275%h\026>\323\332`\275\341Z^\276\246\234\277\275\354c\002\276\300\'\256\275\327\365@\275\030U\333<{\263\216=\005Fs>#LA\276\201 \016=\275^\276\275\276\200\230\275\341\252t\273n{J=\340\300\254\275\014\002m\276\331sw\276)\035\\\274Yy4>\'\361\025\276\365\3311>\305\027\032\276\224\220\311;\033\271\372\274\327G\222\274\214\325k=\226\317\240=\351\212\232\275\334\332\272\275\241\371\024=X\332\\=\316?\022\276\203\3267>\274o\264\275\273\2154\275\346\007\025\276m\234\335=\027\304`>\010\245\220<\227\373O>(\2442>f\2671\276\262\002\027\276\371\254\264=\225\032\311=>\357\005\276\354\026\031\276\010\351>\276\325\223#\276\262\026\233=\322\331\302\275h\315\270=Q\260\203=\212N$\276\333D\312\275n\027\004>p\343\346<\322\006\016\276\322\225\232\274\366\327\201>\375P\354=zOF\276\030\207\310=\3305\006>\271\024S>-\\\007>-\247\335\275\340\007\033\276\347$\231>k\321U<]\023\302\275\2209\201\273:\265\221\275\037\322\013\276\000/=\276;K\221>\014\307\203\276\253\201\377=aS\">K@\220\275U\273\212>\376r\253\274t\036\246\275\360\244\335\275\232\tQ\276\005NM\276Y\360\037>c\347v\276<\210c\276`C\357;G\243}\276r`\001=\034\006\263<n\271d\2765v\370=\323\253\242<&\273\231\275\261a\000\276\305\347~>\331\304.>kS\255\275t\300]\276\331\231\001>\357t\013>\341\271\327=\036\222\254=\000\332\261\274a\303\340<p\000\022>\036\247\017\276\022\212\256= \220\206\275>\227%\276\277\371m\276j~\374=\241\245K\276\306\025\343=\252\346\202\275\r\331\327\2750\234L\275\000\245\217:\")\226\275\277\231\317\275\017\264w>\221\265L\275\310I\260\274\232u\324<\363\370\317<\276\321\024\276\177\263\226>^\225\246=\227|\037\276\345{d>\265W\273\275\031\337\032>\303\230\271=\362hA\276\361dv\276D\362^=\307L,>,\347\022\274\234\370\334\275ZRP>\237]\027\275\243>Y>\237\345\340\275\262B\037\275\021\267\234=\271R\017>\310\010\241=\325\332G\273\334\005#=M$L\276\033LF>$\227j\276\316p\207>\257\264R<\034?A=\242\231\256\275\302\316\237=\245\016/\274\033\227*>\271\322\360=#\007\034>\224\362\235=\344+\216\275\263\375\266=\367+\354\2755\366\306=@\031\372\274\343\033\t>\256d\216>\376F\231=\007O,=\323\240\371\275yo\326=\031\244\024\276xW\233\275i\nn=R&5\276%,\263=\373M-\276\236}\"=\364\203*>\344\356\251\275\336I=\276\263\2578>\307r\201>?yW\276\212\242%\276\r\345Q\274\027I\017\276\207\207\021\275\036\353\353\275m\206\000>\034v\233=\303\337p>Li\036=\030dh=\2009k=\014\223\245\275\234\241\256\275\337\307\201>Cg?=\357E4>\302&\216=\241\035\372\274\001\347*\276@\314e=\004l!\275\364n\205=\343(\300=@\222\226\275\177\305$\2766\337\347\275\250\336\336\275\372L1\276\204\030G=\024[\264\274\371\354\022=Z\033(\276\035\314/<\352\273\272=\327+2=wE\025;\332\243\331=\254([>\377O\001\276\251\246\037>\374\004\244\275/\232H\274\020\315\206<\026b\014>\253t\\\276\\dL\276\225lj>\032\223\032\276\370Cn\276\204\234?\276m\346\n\276&*+\275\336\337\302;\203\036b\276\0141+\275&\270\306=\206\317\314\275\312v\262=N\252\014\276r\270\025\276>\250\366=3j*\276\353\315o>\261f\\\276\262\302\315=Y,\327\275\t~\315\275\235\013\006\275\340|\013>\000\3762\276\213\233K<\322\2418>\247M\321\275\306\240\212>\344\255y\276\200\337G\276\006\0021;\223\001\261\2718wp>\251k{\276f\214\211<\314\tI\276\251\245\262=\000\246P>\330\257\037\276\177\361\203=WL\227\275:\251\234=fe\347\275t\277\364\275j\306\232=\350YE\276\000O\002\272\'\376\225\275\004\'T\272\370\236\230;J\212\230=8\032a\276\212\tH\275\032\n\313=\202\341\014\276\301\341\237\275h\030\265<T\314\203>oyB\276\302\327&\275|\257\000\276\336\233E\276T\263\002\275\375\321H\276\327l\315\275\334\237\206=\350^V=\312\371\232=\033\023\003\276\326\211/>\260;\263=pC\227>\"o\020\275vv\036=\200T\225<\224ZJ\274D\355\247=3\336V>\255\3473\276T\364z>\320\023\020\276S\270\246=\021\001\375\275C\332\217>\302\371\025>\030^4\275\3470\013\276\302\325\274=S\356\007>9\251X\276\216F`\275P\007Y\275\326Rd>!P>>U\320<=\222>4\274.\336\n\276\266Q\024\276\250M\342;\232$\311\272\341\013O\275\003a\256\273\224Yx>\023\351|>`\350\020>\303!\\\276c\201\255=\022iI=,\001u>J\373K\276Y\220.>\205Yt<\322\351\314=_`B<\221\314\200>\303\016\010\276\257\272\275=\000;g>\247\3464>\242V$:\224\373\243\275\321D\325\275\304\225Z>\rt\211><\303\231\275~\246.>\300\'#\274k6\316\275\216u\014\276\301j\030>\035m1>\376\337\007\276n\343K>\030\177=>\354\231J=\244H\206\275\253\222|=t\\\224=\277\365\037>\352\220\025\276\3323J\276\224\227#\275\260\270\'\276Mt8\276\257\237&=|\210\250=>B\206=#\261\261\275\021\307\n\276\312\305\023>\376\260\014\275)\345&\276:\225`>P\351I>\206\007\r\275\231\240+=\271X?>p\262\257\2742]m=\311\206S=l(\005>\330\243\354\274\27221>\230\016\212\275\207\201\005>\376}u>\213\211\232=E\0062=\013\326\223<\000\363\375\274\031R\274\275\004<\'>\0174\350\275\t\236;>z=C\276*\256\347\275q\005\234>\253\344:=\377\002\022>\302|*\276\037!_=\372q\002\276nW\357\275\262\366\n>\004\255.\276\303\337\365\274\257D#>|\177/>\034@\033\276\001ed=B>\225=>\253\216=#s\227>\304\203\371<\227\016\026=`\244R\275\235\353\363\275~\236H\276\300\273\246\275\240\203K\275j\371\270\275\220\2433\276\245\3174=\324\243\251\275^\351d\275\314\243 \276\356:\t\276\272\312\244=\26013\276\224\326\224=\352\237\026\276zz\207;\236R\006>Z\250!>\255\3556>\346`\031\276\001k\343\275\343\312\242\275\020\013`>F\302\036<H\350\322\275\006\177\325\275\236\317\204=\334\3653>=\262\021\276va\302\275\"\200)\276\276\t;>\305/\212\274\236\202\031\276!*\t>\232!\273=!\323>\276\320m\260<\324\3510\276\322\237\006\274\300a\361\275\206L\212=xr\252<Vz\034>\000Fj=\217\317?>\0257\034\276U\372.\276\260\035\014>BQ\335=\366;E\276yj\263=\000\310\006\271\313h9\275\314\037\'>yz\304<\244g3=]Y\332<\340\354X\276C\256+\276B \017>\327\347\014>\234\000\305\275#\246#>\032\307\336=\264\271\356=4\003a\276\365\214\277=\325\027\206\275\035\022\263=\351\245\233= \367\360\275\206\267-\276\033QL\276OF->[\331 \276\177A\233=\2230K\276\217\231Z>;h\204=[\351+\276\3779\030>\021\250\005=,;\021=\306\037\304=\'\374\253=M\031\024\275\221\027\276=r\001\313\274 D\377\274\301\2465\276\005\327O=\275I\216=\216^z\276\220\350$>\255\345\006\276\262\221=>\rXK>\254\262\t>\377\231\307\275\213\372h\276\253\256+\276\202Qr\276\2574\271=\243\010\227=\262|\313=\273\373H\276\203\3404\2760\220\235<\246\273\">\271\335U\276\340\330\311\274vT\030\275@\307\344\275\276\211\377=\376y\003\276\023\255\003>\253^?> \301\367;\226\304\241\272\331e\360\275J\362\376;\330\341@\275j6\031\276\356y$>\' 6\276\314:#>\332\314\234=9\265z\275\357\263\r>\005\317\t>\227JN\275\342\235[=Z\246\310\272%\330-\274\'n\341=\257?\t>lj\030\276(\233/\275gR\t\276\033Z\371\274pl\365=~\352C\276\324.+>\216\354\320=\326YO\276d\0236>\275\264D\276/\342\345\274\211\254\212>\255\031\324\273d\023M>(\333f>\324y@\276U\327->\226\307\303=\241\246\310<\245l\254=4\225\037>\241\217O>Z0\361=\276/A\275\373J?\276\243\1771\276z\333\346\275~\261\t\276\201\247B\276\303p>>=],>o\203b\276\215\267\323\275j\0135\276fJ\325<\375x`\2764\213\304\2738;\230=\321\332N>i\267\362\275\231C4\276x\304=>f\372\025\2763j\364\275=\203\017\276\351^\026\276d\210\252\275\032E\222<\000\347\365;lUx=\231\240\363=o\337L>\267\360F>8E\265<\301\314\232<\016\303\234=\374\023\202>\\\253\205=\21268>\223\336a\276,\t8>{\373Y=\306\024\006\276Z\325(\276\230\256&\275\2200\017=\302\211\177\275\346\035\340\275\212^\305=\316h\342=\316D\312<>aT\276\244\006C<:\024\021\276\347\330u>\341\n\241=\t\250?\275\270\016]>\264\200\304\273`\020\376\275t5\\>\317\207\236\274N\253\004\276\256-!\274\3736_>\327\357!>5vo\276\316Z\'\276I[\203=\033m\313=\240\344\331=E\032F\276 \214\241\273\245\335\t\276>H\212=\315;\275=9\022\277\275\031\332h\273lF\224>\233\0078\276|\003\234<Q\3675\276~\2561=s\356\001\273\330\236\350\274E\375\205\276X\322v\275\334\224e=\271\200\310=\364?*\275\240\346\265\273\005\362\000\276\240`\251\273\r\232\025\276\340\347\327=\001f\276\275\227\025c>\227(%\276FA\377<\362\266\205:4\273F\2754u\016\276+=\332\275\221\316\260\275Fr]\276@\022\265;_>\217=\036b\224\275\r(B>>\277\240\274\272\022\304\275:\351\257=\223\364=>\226S)>\265\270^\276<\210l=\215p\037\276x\301\326<,\215\317=UkP\275/>\241\275l\373\372\275\240\010\214>\316s\237=\366\236s>\365\177\235=#\200\016<D\000\210=\346\002\025>1\204P>\222\363\310=\232\304e\276\035\257\352\274Z\254\021>\224\010\311\274\362\007\336=\3653\207>\007\024\330=7`Z\275\320\320\024>P_<\276\200\215\245\273v\\A\274s\303G\276\371L\373<H\023\031>\370\236\251\275\357_\300\275\340}\345\274u\220\202\276\274Xt=\303\263\006\276\217\237\221=\337\2767>\001c/>\374^\301=\021\204 \276p\262?\274\320\250\027\276\234\307\315\275\257\236\014=\273\334C\276\233\372]=\010\032X=\0049\000>\007w\207>\310-\253=\325+4\276\316\243\301<x\014\r>\332\010\245=fB\345=\327&\037\276}kg>J\340\017\276\005\3478>`\2221\275H\252\342\275\372\023\341\272x\\4\275\260g\212\275F,\212=\241\260x>\206}\302\275\340t\270<)\353N>\204\355*=\224\034m=\331#\033>b\351\214>ENK\276\324\271\031>\270}\312=c!t\274F\020\223\276\373\362\"\276\355lF\275\"\3667>\013\356\200={\001<>\023\337\\=\203\242I=\325I\203\275\200\242\007\273\266)\277=-\323\257\275\006N\307\275\306I<\275\214\016\246=\260\333\303=\256\244\t\276v\006\225>@\204N<}F4\276\334XI\275\036\251\n>\340\032,>6\350\301=8\363)\276\246\nH>4\306l=n\320\354\275q\215\321<\207>\032\276\266\372\333=@49\276G\365\016\276\033\215c\274\210N\266<\256\327\351\275\345\226\027>\256S\031\2769\317:>\241\010\336=`\370\014\276\200\276\375<P\205\302<8D,\276\342k\334\275\245j\366=N\201\324\275\3016I>\212\313\336=\\\275&=\251\032G\274\373\260\033>8k\252\274\233\226\346=\322\033\336=\246J\325\275\365\200,\275 vN\276@\007\220\275\367\014\357\275Z\346Q\274{\rD>\"\036\274\275\333\032\037>\3711U>?\005v\275Fv\025\276\302\330\031>6\271G>T\202z=\001\273\027\275\201DQ\276LiK\276\2361\236\275\340\214o\275\027o?\276H\271\r\276+E\262\274\013\205\035\276T\234%\275\024J-\276\032&\260\275\010\250\314\274\246-<\276\010\264\306\275B\276\036\276dhX=B5b\276$ci=i\340\364\275\224\214s\275}\'\021>j-\027\275~?\263\275\304G\007\275\240\273\206;w\265\r>\267\252?\276\276^\307\274l`_=@\372\374\275\020\010>\276\362$T=\254X\371\275\036\215^=c\016]\276.\373,\276wu\004>\246\r;\276\347\223,> \243\375; \344K=y\231\211=&\332%>\375\260\262\275Dk\033\275\010h\344=\0241%>\2315\240\275\267\024\234=\207BU;S\375\036>\241\304b\276\035\200\360\275\372\242J>f\271`\276\"\3452\275\343r\333\273\377\270Q>wh&\276V\'2=7F\240\274\244\026\030>\031U\001\276\030\n6\276VS\016=\357\350\377<\333\214O\276\235\373!>\232w\017>\343\342\203\273\315Y>>S\3000\276_\327D\2767\323A<J\2548=!v\016>KJ\244=\030\241(\275\203\207t>\231\200\035\276\223\2627\276\200\352\267:7{+\276\214GR\275\034\201\000\275I\321\210=\252\311\032>\022`\"\276d\333H\275\345`\010\276\315\250<\276\326dI\276\315&$>\306w\332=<\375\310\274&\321\320\275`L\335\275\257\212:>\364\323N\276\323\375\373\275\34732>\214K2\2763\344!\276\203 <\276&K\270=\305\224I\274AJ\301\275\352R\307=\220\214A\274t\303G=\325\367\030>\374\306H\275>\267\236\275H\031s\275\002k\332=\300\307F\273\303\346N\276\033\363\375\275\255\206Q\276\031:U=\302y\333=e\215\024>\020\256\342\275\320\347\017\276\273\316\207=m\030\002>\201a?\276\016*K=\225\212\013>\317\340\345\275T\003\033=\010\204\245\274\244\0230\275\261HH\276d\232\010=\325\274*>\030p5\276v\332\002\276\335L\332\275@(r\274r\245\374\275\314\000\025\275*\003s\275\240\271\253<i\n\377=\020;\216\275\004\362?\275\264C\241\275\232\354\233\275\265\n\037\276\356XM\276\357\266\334\275h\251D\275\356\r\334\275`8O=\201\006\032\276\204\035-\276\035\212\313\274av\215\275tW@\276\354B\251\274\203~^\273\217\332V\276\230A\362\274,1\335=\336\0370>\341\227\031>?f\031\276\260\ns\275\321\313J>v\002\377=\007\017\032=w\346[\276\265\245\302=d3\201<\004\373A>O\303\n\275\002g\311=RQ\220=M\323\356=\342\033J>\314\314Z\276\324\325\255\273\225\033\014>\207g\313=\375\276\203=\303\3077\276J#b\275\036\210\356\275\266\276\t<\217\212D>\031\023\n>h\345\227=\357o\010>\371\207\024\276@\373\035\276\023\360\211>\353S\212<\254\0132\276U\261\005\276\234Zg=\251\023\227<\377\022<\275\251\345J\276\233\314\334\275\224\366H\276\337[\303\275t\212@>$\230(>\322\251\211\275\252\325G>\014\230[=O\277Y\276\203\243\004\276\226@<>\224\345\014=-\202R\276\324\223\355<Jt\014\275\034\301f<!\313.\275\037a\020>\303X\350\275\262Z\003>Ow\033>j\221/=R\317\212=\010/\034\275@E\304=C\0172\276\304D\331\275D\235Z=\306\257}>\305\"m>@\002{\273e\026\271\275g\333G>&a\314=\206ah\276\303\216\376<\202\356\315;\301lR\276\212\327\306=4\370\336\273R\361\347=_4\030\276\020\000\222>3\325X>\305\346o;\014x9\276\346\335\337=\003\347/>}\317\235\275\260\305\241=\202\337\377=,\353\303=S\212\205>\376\205\020>\246\361J\276\252z\322=\246\210\271\2752\342\315\275\"1\r\276\023\034\213>\344\003\267\275\363 \232\274\233\225d>\220D?\276M~\243=\210a\267\275\314\232?\276\275zs>\204\"\252\275\207\216=>l{\\>ni\354=\243v<>;\340!=q\036k>\351\234\026\276\347U]>\275n\023>/\332\002>\224\240B>q\236\023>\306\032h>\342\3626<)\005.\275\354\022d>g\207b=@\344&<\212I\010\276\030Av>\030\014U\276\373\ro>Dc5\276C?R\275\330.\356=\366\206S>W\357\205\275\251\227Y\276\\\316P>\224\242\006=\236P\033\276\317\336<\275\355\253\372=\\|\205\275\252>\376\275\350\343O>2Y\263\274E\021)>y#@>\256\251\261;F\203\217\275\252\2506\276\r{\277=|D\221=I6\003\276<\271T=\370\362\210>\026\240+\276g\2567\276\357=\270=\004PU\276\345\264?\275\357\037\311<F\014T>\2231\207>m5\010>YW\027>\240V3=\234p\t\276\204u\034\276\254\215)\275%{\267\274\"d\365<vTm>\002f\317=:\210\326;Ka$>[\202C>)\236\235=\354F\357=!m\317=\200_,\273D1\323\275\270\002\206\275\321!\247;\231De>\301\007\030>)+\037>v\021\366\275jP\014\275\000@\243\275\242C\364\275\272\352\003\276\025NH>>\336\256\275\347`\375\275\313\370\t>\225\332\353\275\370\361\322\274\024[\021>\034\n\003>vnU\276^\217 >\365S\033\276\'^\350=\263F\036>\006\002\336=h\321!\276Z9:\276d\330c>\216\227M\276rA\332=\222\311\375\274\332F\317=\307\263\320<6\030W>\322\321}<|\230\213\275%(s=\334\214+=P\365\t>\205I\035=\235\023\242=1\222Q>&v\207\275\245\254\n>\344\3329>\310\336\343;,\327\003=\316\033\003=\360x\223\273\210HR>\036\251\266=g\357\331\275;W\352\275\345\032\264=\034<;>\014y\003>A)\360\275\316\301Y>|qF\276.>\354\275T\323\206\273Z_\003=\\\030\007>\3233\020>\351\320\201=\372\030\247\272\374)\177>\336\246\221\275js\004>p\026\244\274Ms\311=dk\241\275\252oX\276\351%D\276\376I\222\275\021`\323\275\357\246\337=Fx\215<kLP>#\211^>e\227\323=X\"\344\275\301lg>v\363\255\275\267\310\250=A\036s>Q\2572\276\237\310\027\274\221\037\334\275|\304\037\276\014\303\007>\014;%>]h\200=gN3\276\312\213\000>\366\007\244\275<nM\275}\027\374\274\306\335\220=\360\376\215=\2576E>\300\355\377\274\032\215\245=TV\253\275\240% >WR\000\276<\031H\275\033\2156>\275Qc>\0316;\276\233\022\215=v>\t>4<@\275\357VM>|\211\013\275-\357z=\350\242\354<\007\035\017=\323T\216=2k\270=\352\361\241=\230\374\230=\200\272\000\276\200\337\316\274\365cz>\rX\267=\220\307]\275\252\254\361=\322E\254\275\037\2109>\360)\357\27581\003\275\237\325D>\322\nV\276\340\267\340\275(\026\032\275\260\261\251<\250\036y\275\335\013L>\014\305+=L\206\002\2750\333\267<kf >B\217\271=\'\344(>\220\025\264<\310n\272\274\215\265?\276\367I\002>\276\357M\276\361R\345\275\240\241x\275,\3206=\246\206\352=ic\005>p\376\207\275\340\345\344\274\2708\370\274\340\271\330\273r\332M\276\240\307\276<\322\305\235=\351\3513\276\340\020\241\275*\0268\276\230\376\254<\204\307\010=\200u\022\276\202\205\311=\232\220\217=\255\332,\276@\315\205<\243\267\t>\263O\016\276\364/o=}\014\346\275\210\2658\275pVF\274L\247i=\371\000?>:\247\307=!\265<>w\345\353\275\357\304\350\275\223\206M\276\356\307\204=\000\267\360\2728C\325<\205\317(>\021R:>\3441\334\2758\321\024\275\004I(=C|N>\364,\225\2741!\233=\357+K=\2367\030\275\375%\010>t\307S=}(\277\274\256.\223=q\\1>CJ\033>U\252Q\275J\330,\276,\232\227\275N\334G>W\256\t\276*\017\274=\010\316\224\275@k\361<9\032C>J\233\211\274#\230\203=\317\370\307\275\336\360!\275D\007J\276\345\220*=\266\"\007>\336\023 >j\3715>\"\344^=\272\273\223=v\301\2749j\221Z=\345\345Y>\277D\270\275\342M\020>\016\253\362=6w\366=c\377a>\"\261\">{\n\273=q\025\035\276#\225\347=\351\377\362\275\250\031\247\274\230\r\337=^\020W>e\t~<\310\244\020\274~\013\206=V\367\227\275l\365E\275\354b\335\275U\031\235=4n\005\276\034\301\253\275\340C<\276\211\300\030>\212,\035\276\367]\343=\327\234\030>\206\371\375=;3\033>\037\241.\276];n>\320\316\205=\n\337\367=]\352#=\356\031b>\004\214i;\024\237q>\031\330L\276\263+4\276\357%\035>JY3\276\267L\231\275j0?>\230/K\275\034b\360;\030a4>\322\212L\276\300\314H>\027\024N>\336\320=\276\307\353\261<\366\022\275\275\220\313X>p\210j>\320\276\023\274Gk\024>G\033C>\370\304\331=\270\022\026>\235\2502;\016\213\237\272r\313\376=\\\342\216=\207\370I\275\023N\346\275a\317Y\276F\013\235=\\\275+\274\001\345\235\275O}\202\276-N\214\275\361\376>>U;\351<\214\331\200>7,\223=\301*\325\275a6\213\272\266\317M\275\344\354\351\275\324\025\021\275\326gc>\010\007/\276\244y\277=\326p\374=S\237\244\275\035\306\">\332]k>\376\316:\276\226\372N\276\016|\">\232\302J\276q\3557>k\242\016>\335>P\276\376pT>R\315\004\275i\231\372=\"\367D>\034\300H\276\377\223;<*Zk\2748\340\264\275\255\252.>\372+\214\275y7<>gl\035\276\nQ@>\206y:\276}\237\000\276\234V\031>ca\017>\341\226g=A\177\024>\346\331\000\276\307]\035\275\243\272\034>\005\003m>\215\247m\2760\0277\275{\251\006>\240i\310\275!\367\343\275%es=\352u\221=\316\026\375=\353\223r\276\274b\330\2753Bw=\020\220\254\275\377\241\206>\370\243X\276\271I\275\274\250\273E>Q$i>\031j?\276l2n=\227e\353<R_h=\016G\224\275\212\017\210>\313\373\276\275\037\226\201\276\240\t\241<\274,f=\0334\320=\246=\376=\321\350\030\276\231\3314>\265@\016\276\310u\271<\242Z\215=\\\341\225\275B\233\315=z\316B\276\024\301\351=c8\010>\374\2525\276\346_N>\217?\210<\004\315\315\2755\205\213=|Q\352<\377\370\222\2760\344s\274_\2612>\2473\350=\006R\226=\320\273b\274vK\230>m\253\206\276\306\367\211>\370r\347\275\376\005(>_B\307\2751I\363\275\331\230\227\273\343\367\366\275j\354\221\275\235\221j\275\332w\272=\004\223\311\273W\243{>=\336/>\211\325\201\275\360\356\217>\203\327\225=\264\367%<^)q>\321b\214=En\032\276R\371\351=\206\347%>\242\305\031>@K^>\261\221:\276=\237\345\2747\333{=G\234\223<Y\317\261=\274\023O\275\351M\363=r\333\371=\203>M\273\2217\201>\217\351Z>#\266\311<\177\270v>J^\231=\355\262\201=\245w?\276\353,\215\276\372;\363=\002\340l>\200\351\214::\320Z\275\006\242\247=\260\004`\275_\020\375\275\364\004(>\271\0062=y\377\316\275\017\206\204="
      }
    }
  }
}
node {
  name: "dense_11/bias"
  op: "Const"
  attr {
    key: "dtype"
    value {
      type: DT_FLOAT
    }
  }
  attr {
    key: "value"
    value {
      tensor {
        dtype: DT_FLOAT
        tensor_shape {
          dim {
            size: 64
          }
        }
        tensor_content: "\265!\327<Z]2<\254U\240<\312\325!\274[15=^I~<-W\177;\216w\354\273\000\000\000\000\000\000\000\000\254VC<\315\200z=\026l\225\272\000\000\000\000?3\263<\n\030\214\274\366\021\017\274Yls=\000\000\000\000| \356<\215\304\250=O\016Y\274\275\214\213=\234\016t<\000\000\000\000\255\237\2308\203/3=\034\035.=\332\n~\274y!\301\2740\225\'<\230v)=\242I\'=U\216\346;w;-\274N\276?\274\000\000\000\000\202\320\207:X\312\242=\335.\212\274\037\000\306\273\000\000\000\000\272\227\000=+\227\364=\0306U\274\327Xe:+Op\274\227\022\014=5\352\330<\000\000\000\000]\321\232<\000\000\000\000V\023\222=\022\202\302\273\025G\201;\000\000\000\000\203\346\202;\000\000\000\000\000\000\000\000\233\345\256=\225\351 ;G\315\000\274\000\000\000\000\244\227\257<"
      }
    }
  }
}
node {
  name: "dense_11/MatMul/ReadVariableOp"
  op: "Identity"
  input: "dense_11/kernel"
  attr {
    key: "T"
    value {
      type: DT_FLOAT
    }
  }
}
node {
  name: "dense_11/MatMul"
  op: "MatMul"
  input: "dense_10/Relu"
  input: "dense_11/MatMul/ReadVariableOp"
  attr {
    key: "T"
    value {
      type: DT_FLOAT
    }
  }
  attr {
    key: "transpose_a"
    value {
      b: false
    }
  }
  attr {
    key: "transpose_b"
    value {
      b: false
    }
  }
}
node {
  name: "dense_11/BiasAdd/ReadVariableOp"
  op: "Identity"
  input: "dense_11/bias"
  attr {
    key: "T"
    value {
      type: DT_FLOAT
    }
  }
}
node {
  name: "dense_11/BiasAdd"
  op: "BiasAdd"
  input: "dense_11/MatMul"
  input: "dense_11/BiasAdd/ReadVariableOp"
  attr {
    key: "T"
    value {
      type: DT_FLOAT
    }
  }
  attr {
    key: "data_format"
    value {
      s: "NHWC"
    }
  }
}
node {
  name: "dense_11/Relu"
  op: "Relu"
  input: "dense_11/BiasAdd"
  attr {
    key: "T"
    value {
      type: DT_FLOAT
    }
  }
}
node {
  name: "dense_12/kernel"
  op: "Const"
  attr {
    key: "dtype"
    value {
      type: DT_FLOAT
    }
  }
  attr {
    key: "value"
    value {
      tensor {
        dtype: DT_FLOAT
        tensor_shape {
          dim {
            size: 64
          }
          dim {
            size: 64
          }
        }
